<unk>	0
<s>	0
</s>	0
<0x00>	0
<0x01>	0
<0x02>	0
<0x03>	0
<0x04>	0
<0x05>	0
<0x06>	0
<0x07>	0
<0x08>	0
<0x09>	0
<0x0A>	0
<0x0B>	0
<0x0C>	0
<0x0D>	0
<0x0E>	0
<0x0F>	0
<0x10>	0
<0x11>	0
<0x12>	0
<0x13>	0
<0x14>	0
<0x15>	0
<0x16>	0
<0x17>	0
<0x18>	0
<0x19>	0
<0x1A>	0
<0x1B>	0
<0x1C>	0
<0x1D>	0
<0x1E>	0
<0x1F>	0
<0x20>	0
<0x21>	0
<0x22>	0
<0x23>	0
<0x24>	0
<0x25>	0
<0x26>	0
<0x27>	0
<0x28>	0
<0x29>	0
<0x2A>	0
<0x2B>	0
<0x2C>	0
<0x2D>	0
<0x2E>	0
<0x2F>	0
<0x30>	0
<0x31>	0
<0x32>	0
<0x33>	0
<0x34>	0
<0x35>	0
<0x36>	0
<0x37>	0
<0x38>	0
<0x39>	0
<0x3A>	0
<0x3B>	0
<0x3C>	0
<0x3D>	0
<0x3E>	0
<0x3F>	0
<0x40>	0
<0x41>	0
<0x42>	0
<0x43>	0
<0x44>	0
<0x45>	0
<0x46>	0
<0x47>	0
<0x48>	0
<0x49>	0
<0x4A>	0
<0x4B>	0
<0x4C>	0
<0x4D>	0
<0x4E>	0
<0x4F>	0
<0x50>	0
<0x51>	0
<0x52>	0
<0x53>	0
<0x54>	0
<0x55>	0
<0x56>	0
<0x57>	0
<0x58>	0
<0x59>	0
<0x5A>	0
<0x5B>	0
<0x5C>	0
<0x5D>	0
<0x5E>	0
<0x5F>	0
<0x60>	0
<0x61>	0
<0x62>	0
<0x63>	0
<0x64>	0
<0x65>	0
<0x66>	0
<0x67>	0
<0x68>	0
<0x69>	0
<0x6A>	0
<0x6B>	0
<0x6C>	0
<0x6D>	0
<0x6E>	0
<0x6F>	0
<0x70>	0
<0x71>	0
<0x72>	0
<0x73>	0
<0x74>	0
<0x75>	0
<0x76>	0
<0x77>	0
<0x78>	0
<0x79>	0
<0x7A>	0
<0x7B>	0
<0x7C>	0
<0x7D>	0
<0x7E>	0
<0x7F>	0
<0x80>	0
<0x81>	0
<0x82>	0
<0x83>	0
<0x84>	0
<0x85>	0
<0x86>	0
<0x87>	0
<0x88>	0
<0x89>	0
<0x8A>	0
<0x8B>	0
<0x8C>	0
<0x8D>	0
<0x8E>	0
<0x8F>	0
<0x90>	0
<0x91>	0
<0x92>	0
<0x93>	0
<0x94>	0
<0x95>	0
<0x96>	0
<0x97>	0
<0x98>	0
<0x99>	0
<0x9A>	0
<0x9B>	0
<0x9C>	0
<0x9D>	0
<0x9E>	0
<0x9F>	0
<0xA0>	0
<0xA1>	0
<0xA2>	0
<0xA3>	0
<0xA4>	0
<0xA5>	0
<0xA6>	0
<0xA7>	0
<0xA8>	0
<0xA9>	0
<0xAA>	0
<0xAB>	0
<0xAC>	0
<0xAD>	0
<0xAE>	0
<0xAF>	0
<0xB0>	0
<0xB1>	0
<0xB2>	0
<0xB3>	0
<0xB4>	0
<0xB5>	0
<0xB6>	0
<0xB7>	0
<0xB8>	0
<0xB9>	0
<0xBA>	0
<0xBB>	0
<0xBC>	0
<0xBD>	0
<0xBE>	0
<0xBF>	0
<0xC0>	0
<0xC1>	0
<0xC2>	0
<0xC3>	0
<0xC4>	0
<0xC5>	0
<0xC6>	0
<0xC7>	0
<0xC8>	0
<0xC9>	0
<0xCA>	0
<0xCB>	0
<0xCC>	0
<0xCD>	0
<0xCE>	0
<0xCF>	0
<0xD0>	0
<0xD1>	0
<0xD2>	0
<0xD3>	0
<0xD4>	0
<0xD5>	0
<0xD6>	0
<0xD7>	0
<0xD8>	0
<0xD9>	0
<0xDA>	0
<0xDB>	0
<0xDC>	0
<0xDD>	0
<0xDE>	0
<0xDF>	0
<0xE0>	0
<0xE1>	0
<0xE2>	0
<0xE3>	0
<0xE4>	0
<0xE5>	0
<0xE6>	0
<0xE7>	0
<0xE8>	0
<0xE9>	0
<0xEA>	0
<0xEB>	0
<0xEC>	0
<0xED>	0
<0xEE>	0
<0xEF>	0
<0xF0>	0
<0xF1>	0
<0xF2>	0
<0xF3>	0
<0xF4>	0
<0xF5>	0
<0xF6>	0
<0xF7>	0
<0xF8>	0
<0xF9>	0
<0xFA>	0
<0xFB>	0
<0xFC>	0
<0xFD>	0
<0xFE>	0
<0xFF>	0
▁t	-0
he	-1
▁a	-2
in	-3
▁the	-4
er	-5
on	-6
re	-7
▁,	-8
ed	-9
▁w	-10
▁s	-11
▁o	-12
nd	-13
▁.	-14
at	-15
or	-16
it	-17
es	-18
▁f	-19
en	-20
▁of	-21
an	-22
▁c	-23
is	-24
ar	-25
▁b	-26
▁in	-27
al	-28
as	-29
▁p	-30
▁and	-31
ing	-32
▁to	-33
ro	-34
▁m	-35
▁d	-36
▁h	-37
ic	-38
ion	-39
▁T	-40
ou	-41
le	-42
▁=	-43
il	-44
▁A	-45
▁re	-46
ad	-47
st	-48
▁S	-49
▁@	-50
▁th	-51
ent	-52
▁l	-53
▁e	-54
ac	-55
▁C	-56
ly	-57
▁n	-58
am	-59
om	-60
▁was	-61
ec	-62
▁The	-63
▁B	-64
▁"	-65
▁on	-66
▁M	-67
et	-68
im	-69
ir	-70
-@	-71
▁@-@	-72
▁I	-73
iv	-74
el	-75
ig	-76
ur	-77
▁for	-78
▁'	-79
▁g	-80
id	-81
ut	-82
▁st	-83
ter	-84
us	-85
▁he	-86
▁N	-87
▁H	-88
ol	-89
th	-90
▁as	-91
ith	-92
ow	-93
em	-94
▁with	-95
▁be	-96
▁(	-97
▁)	-98
ation	-99
ul	-100
ver	-101
▁D	-102
▁L	-103
▁P	-104
un	-105
▁at	-106
ay	-107
ce	-108
▁that	-109
ot	-110
▁F	-111
▁by	-112
▁al	-113
ch	-114
▁R	-115
▁con	-116
ct	-117
▁W	-118
os	-119
ain	-120
▁wh	-121
▁his	-122
ers	-123
av	-124
▁is	-125
▁it	-126
ip	-127
▁J	-128
rom	-129
ag	-130
▁G	-131
▁an	-132
est	-133
▁O	-134
ore	-135
and	-136
ere	-137
her	-138
um	-139
▁were	-140
▁r	-141
▁de	-142
▁from	-143
res	-144
ld	-145
ist	-146
▁U	-147
ort	-148
igh	-149
ate	-150
if	-151
up	-152
all	-153
▁com	-154
ap	-155
▁E	-156
op	-157
ber	-158
od	-159
ri	-160
▁In	-161
▁se	-162
ak	-163
ies	-164
ill	-165
qu	-166
ity	-167
▁v	-168
ated	-169
▁pro	-170
▁K	-171
ard	-172
ant	-173
ew	-174
▁had	-175
ong	-176
ab	-177
gh	-178
▁sh	-179
ich	-180
▁ex	-181
ast	-182
ive	-183
▁pl	-184
▁k	-185
▁are	-186
ack	-187
ect	-188
▁or	-189
art	-190
▁St	-191
oc	-192
ust	-193
ud	-194
ian	-195
cl	-196
ight	-197
▁He	-198
ame	-199
ess	-200
ost	-201
our	-202
und	-203
ical	-204
ial	-205
ear	-206
ge	-207
se	-208
▁which	-209
▁su	-210
▁ar	-211
red	-212
ass	-213
▁ch	-214
▁Ch	-215
ary	-216
▁int	-217
▁not	-218
▁;	-219
ment	-220
ish	-221
ra	-222
rit	-223
▁un	-224
ov	-225
ions	-226
so	-227
per	-228
irst	-229
.@	-230
▁@.@	-231
▁sp	-232
ry	-233
mer	-234
oun	-235
fter	-236
ave	-237
ep	-238
ign	-239
out	-240
ia	-241
▁le	-242
▁tr	-243
ould	-244
▁y	-245
ine	-246
ens	-247
▁also	-248
▁its	-249
▁V	-250
end	-251
▁but	-252
ell	-253
ted	-254
▁first	-255
ous	-256
ire	-257
▁cont	-258
ide	-259
pl	-260
wo	-261
ue	-262
ure	-263
▁ro	-264
ib	-265
▁their	-266
ome	-267
ther	-268
▁whe	-269
▁cl	-270
age	-271
orm	-272
▁res	-273
▁ad	-274
ren	-275
hed	-276
▁Les	-277
port	-278
cc	-279
ff	-280
ach	-281
ond	-282
ans	-283
ater	-284
own	-285
rop	-286
▁us	-287
att	-288
ugh	-289
▁comp	-290
▁im	-291
ork	-292
aw	-293
ke	-294
ru	-295
og	-296
▁On	-297
▁two	-298
low	-299
ward	-300
ition	-301
ie	-302
▁ab	-303
ember	-304
▁des	-305
▁have	-306
uring	-307
▁been	-308
erv	-309
ime	-310
▁att	-311
,@	-312
pp	-313
▁@,@	-314
▁sc	-315
▁–	-316
ts	-317
▁bec	-318
du	-319
▁head	-320
ance	-321
ord	-322
ree	-323
▁ag	-324
▁one	-325
▁per	-326
▁after	-327
▁bo	-328
iz	-329
ph	-330
ron	-331
ction	-332
▁dis	-333
▁out	-334
▁ev	-335
orth	-336
over	-337
ice	-338
urn	-339
▁po	-340
ough	-341
ress	-342
any	-343
ile	-344
▁this	-345
▁up	-346
ace	-347
ub	-348
▁off	-349
ision	-350
▁Y	-351
▁we	-352
ound	-353
▁has	-354
ican	-355
ines	-356
ence	-357
ind	-358
▁It	-359
▁Th	-360
ally	-361
ank	-362
▁Com	-363
amp	-364
▁:	-365
nar	-366
▁Lesnar	-367
ade	-368
▁part	-369
▁over	-370
▁app	-371
rough	-372
▁Amer	-373
▁they	-374
▁An	-375
ced	-376
▁en	-377
▁into	-378
hip	-379
▁rec	-380
ied	-381
ero	-382
iss	-383
▁j	-384
clud	-385
ang	-386
▁him	-387
▁comm	-388
▁time	-389
▁who	-390
▁would	-391
ult	-392
ok	-393
ered	-394
▁fil	-395
ations	-396
able	-397
one	-398
▁Ar	-399
▁Un	-400
▁Man	-401
te	-402
▁pre	-403
▁ear	-404
we	-405
▁ne	-406
int	-407
▁year	-408
ev	-409
▁Nero	-410
ited	-411
▁more	-412
man	-413
▁includ	-414
act	-415
ons	-416
▁cons	-417
ces	-418
▁te	-419
ark	-420
▁other	-421
oss	-422
▁Al	-423
▁during	-424
▁und	-425
wn	-426
▁rem	-427
ors	-428
▁only	-429
ropical	-430
ral	-431
ipp	-432
▁kn	-433
▁arm	-434
▁most	-435
ning	-436
ase	-437
outh	-438
▁play	-439
▁again	-440
ick	-441
▁War	-442
▁ret	-443
▁film	-444
ory	-445
▁all	-446
ased	-447
ood	-448
tern	-449
▁work	-450
ational	-451
aus	-452
ose	-453
ict	-454
uil	-455
gan	-456
ates	-457
▁Brit	-458
ft	-459
avy	-460
▁col	-461
▁sup	-462
ters	-463
▁gro	-464
▁when	-465
▁under	-466
▁American	-467
ason	-468
land	-469
▁dec	-470
▁sec	-471
are	-472
les	-473
ious	-474
▁Ro	-475
▁three	-476
fer	-477
▁day	-478
ating	-479
▁num	-480
ss	-481
ents	-482
ail	-483
▁cent	-484
ivision	-485
oon	-486
▁end	-487
▁through	-488
▁em	-489
iron	-490
▁fl	-491
ollow	-492
▁them	-493
▁—	-494
orld	-495
▁pe	-496
ount	-497
arch	-498
ila	-499
ite	-500
▁bet	-501
pt	-502
▁lar	-503
▁US	-504
▁met	-505
vel	-506
▁Manila	-507
▁mov	-508
old	-509
ug	-510
▁am	-511
▁def	-512
▁war	-513
▁mon	-514
▁iron	-515
ock	-516
fore	-517
▁ass	-518
▁ship	-519
eter	-520
▁km	-521
ever	-522
▁form	-523
inal	-524
ained	-525
▁buil	-526
▁North	-527
▁gun	-528
▁made	-529
▁sub	-530
▁than	-531
▁fe	-532
▁her	-533
▁produ	-534
▁Aust	-535
▁four	-536
▁later	-537
▁sever	-538
io	-539
hil	-540
ific	-541
▁British	-542
aid	-543
▁while	-544
ler	-545
▁co	-546
▁New	-547
ince	-548
▁about	-549
▁trans	-550
ike	-551
▁design	-552
▁number	-553
▁/	-554
ener	-555
▁reg	-556
▁season	-557
▁me	-558
▁city	-559
ween	-560
round	-561
▁where	-562
▁follow	-563
▁some	-564
ept	-565
ubl	-566
reat	-567
iver	-568
▁new	-569
▁batt	-570
▁used	-571
ea	-572
▁dep	-573
▁inf	-574
aj	-575
rib	-576
▁loc	-577
▁spec	-578
▁est	-579
▁str	-580
▁against	-581
▁ac	-582
▁attack	-583
▁between	-584
▁sur	-585
▁air	-586
▁before	-587
eg	-588
ath	-589
ual	-590
▁second	-591
▁tropical	-592
ulu	-593
rench	-594
▁Comm	-595
▁Kore	-596
▁French	-597
▁became	-598
xt	-599
iew	-600
aced	-601
▁Bint	-602
▁high	-603
▁there	-604
▁Bintulu	-605
ross	-606
▁ver	-607
▁Phil	-608
ake	-609
▁pr	-610
clad	-611
ings	-612
velop	-613
▁storm	-614
way	-615
▁Sp	-616
lect	-617
▁pos	-618
▁land	-619
▁several	-620
ames	-621
ower	-622
▁she	-623
▁gr	-624
▁both	-625
ission	-626
▁develop	-627
orn	-628
▁inv	-629
▁team	-630
▁game	-631
▁inter	-632
▁As	-633
ius	-634
▁back	-635
▁group	-636
▁United	-637
etr	-638
hes	-639
ved	-640
▁ind	-641
▁rep	-642
▁known	-643
ek	-644
ats	-645
▁sm	-646
ures	-647
▁sy	-648
ived	-649
▁acc	-650
▁inc	-651
▁rel	-652
apan	-653
▁mil	-654
ished	-655
▁This	-656
owever	-657
ily	-658
ull	-659
▁Jan	-660
overn	-661
▁Japan	-662
▁Cl	-663
▁no	-664
▁imp	-665
▁ent	-666
▁hist	-667
▁serv	-668
▁After	-669
▁return	-670
▁Philipp	-671
bum	-672
▁ty	-673
▁Sept	-674
▁qu	-675
▁act	-676
▁ironclad	-677
▁September	-678
ix	-679
▁At	-680
ians	-681
▁contin	-682
form	-683
ement	-684
▁Batt	-685
illion	-686
▁add	-687
▁char	-688
▁these	-689
ular	-690
irect	-691
▁mat	-692
az	-693
ern	-694
ined	-695
▁Aug	-696
eries	-697
▁like	-698
▁wind	-699
▁could	-700
▁found	-701
hn	-702
ics	-703
ier	-704
▁Ind	-705
▁man	-706
▁ord	-707
alled	-708
▁main	-709
▁along	-710
▁August	-711
ful	-712
ause	-713
▁car	-714
▁Stev	-715
ert	-716
▁Oct	-717
▁oper	-718
▁rele	-719
▁began	-720
▁Division	-721
ajor	-722
▁long	-723
▁many	-724
▁pres	-725
oy	-726
ife	-727
une	-728
ball	-729
other	-730
▁such	-731
▁World	-732
ton	-733
▁so	-734
▁Col	-735
▁Ger	-736
▁May	-737
▁being	-738
▁large	-739
ued	-740
ica	-741
▁down	-742
▁Stevens	-743
▁$	-744
ible	-745
ting	-746
▁dam	-747
though	-748
hen	-749
rest	-750
▁did	-751
▁rev	-752
▁dist	-753
▁near	-754
▁early	-755
▁including	-756
▁NY	-757
olog	-758
▁album	-759
▁Ju	-760
ident	-761
▁area	-762
▁prev	-763
▁bel	-764
ection	-765
▁record	-766
elf	-767
ram	-768
bass	-769
▁can	-770
▁ter	-771
aking	-772
▁writ	-773
▁start	-774
▁cap	-775
ck	-776
ute	-777
▁Im	-778
ober	-779
▁bro	-780
▁exp	-781
▁tank	-782
▁October	-783
ob	-784
emp	-785
ised	-786
▁small	-787
▁direct	-788
emb	-789
til	-790
▁mod	-791
antry	-792
▁poet	-793
▁class	-794
▁ships	-795
▁govern	-796
▁million	-797
als	-798
quad	-799
▁ext	-800
ities	-801
▁resp	-802
▁sign	-803
uch	-804
▁Am	-805
gest	-806
▁set	-807
▁win	-808
ivers	-809
▁then	-810
▁comple	-811
ey	-812
▁ob	-813
ject	-814
phoon	-815
▁disc	-816
▁years	-817
ina	-818
its	-819
led	-820
rol	-821
▁br	-822
▁lo	-823
ized	-824
▁Comp	-825
▁north	-826
rew	-827
▁Sh	-828
▁Ang	-829
ccess	-830
ified	-831
▁until	-832
▁consid	-833
ven	-834
uary	-835
ually	-836
▁June	-837
▁pass	-838
▁well	-839
▁command	-840
ool	-841
▁do	-842
▁art	-843
▁since	-844
▁following	-845
iel	-846
ided	-847
ople	-848
stru	-849
▁adv	-850
▁min	-851
▁publ	-852
▁January	-853
ten	-854
▁Le	-855
▁Wh	-856
▁dif	-857
ially	-858
▁fire	-859
▁But	-860
▁any	-861
▁series	-862
ise	-863
ped	-864
ange	-865
ately	-866
ative	-867
▁guns	-868
▁National	-869
▁Nov	-870
▁feat	-871
▁said	-872
▁sing	-873
▁UB	-874
ersh	-875
▁Arm	-876
▁July	-877
▁pers	-878
ampions	-879
quadron	-880
▁pit	-881
▁use	-882
uss	-883
▁Ed	-884
ling	-885
▁San	-886
▁mus	-887
▁ste	-888
aining	-889
▁called	-890
▁because	-891
▁support	-892
▁Philippines	-893
ner	-894
amed	-895
▁Car	-896
▁pol	-897
▁pop	-898
▁offic	-899
▁Lester	-900
▁November	-901
yl	-902
ird	-903
▁ft	-904
▁dest	-905
▁rece	-906
▁built	-907
ask	-908
emor	-909
osed	-910
side	-911
▁They	-912
▁each	-913
▁gener	-914
▁match	-915
▁Co	-916
▁Inf	-917
endes	-918
ershaw	-919
▁Mendes	-920
▁Kershaw	-921
ampionship	-922
air	-923
ger	-924
ism	-925
ycl	-926
wards	-927
▁week	-928
▁bl	-929
stem	-930
▁All	-931
▁care	-932
▁prov	-933
▁Jo	-934
raft	-935
▁eff	-936
ather	-937
ression	-938
▁metres	-939
▁within	-940
ble	-941
▁Du	-942
▁Is	-943
▁op	-944
ired	-945
▁Con	-946
iment	-947
ins	-948
itt	-949
rip	-950
ched	-951
crib	-952
▁life	-953
▁show	-954
▁around	-955
▁success	-956
ann	-957
uty	-958
chool	-959
▁evac	-960
▁lead	-961
▁port	-962
▁repl	-963
▁appro	-964
▁death	-965
▁major	-966
▁[	-967
▁]	-968
ars	-969
ene	-970
ret	-971
▁Br	-972
▁fin	-973
ached	-974
ments	-975
ought	-976
▁Road	-977
▁stud	-978
▁people	-979
▁However	-980
ays	-981
▁Fr	-982
▁Me	-983
▁WW	-984
ones	-985
▁own	-986
▁six	-987
▁intens	-988
ah	-989
pr	-990
ops	-991
osp	-992
hern	-993
ield	-994
ended	-995
▁allow	-996
▁charac	-997
▁Z	-998
ury	-999
▁Gu	-1000
▁No	-1001
ored	-1002
▁For	-1003
▁sim	-1004
▁heads	-1005
▁German	-1006
▁Company	-1007
ax	-1008
ese	-1009
esp	-1010
iet	-1011
▁Ty	-1012
aged	-1013
rist	-1014
▁WWE	-1015
ility	-1016
iving	-1017
▁same	-1018
urther	-1019
▁power	-1020
▁south	-1021
ric	-1022
▁En	-1023
▁cr	-1024
ants	-1025
▁ref	-1026
alion	-1027
▁prom	-1028
▁requ	-1029
▁moved	-1030
▁ep	-1031
ague	-1032
ains	-1033
ured	-1034
▁cycl	-1035
▁east	-1036
▁orig	-1037
▁South	-1038
▁final	-1039
▁light	-1040
lm	-1041
ms	-1042
ein	-1043
▁Ad	-1044
▁ed	-1045
aken	-1046
ared	-1047
ient	-1048
▁bar	-1049
▁tro	-1050
aving	-1051
ument	-1052
▁inst	-1053
▁post	-1054
ery	-1055
imes	-1056
ront	-1057
▁led	-1058
▁crit	-1059
▁even	-1060
▁held	-1061
▁line	-1062
▁next	-1063
▁what	-1064
▁build	-1065
▁released	-1066
▁may	-1067
▁five	-1068
▁town	-1069
▁count	-1070
▁winds	-1071
▁Infantry	-1072
▁position	-1073
▁Commission	-1074
pe	-1075
alf	-1076
▁due	-1077
▁men	-1078
atter	-1079
▁Navy	-1080
▁Tetr	-1081
▁nort	-1082
▁turn	-1083
▁incre	-1084
▁system	-1085
▁describ	-1086
▁Tetrarch	-1087
tar	-1088
ung	-1089
▁Pl	-1090
ists	-1091
ives	-1092
▁pat	-1093
▁Gore	-1094
▁left	-1095
▁poss	-1096
▁stru	-1097
▁took	-1098
▁Butler	-1099
▁government	-1100
ik	-1101
els	-1102
ream	-1103
▁Gib	-1104
▁Mus	-1105
▁mph	-1106
▁now	-1107
▁occ	-1108
▁old	-1109
ution	-1110
▁ever	-1111
itions	-1112
▁named	-1113
▁Korean	-1114
▁single	-1115
▁Japanese	-1116
▁▁	-1117
▁Em	-1118
▁Fu	-1119
▁sl	-1120
aval	-1121
read	-1122
ried	-1123
▁Dec	-1124
▁ann	-1125
▁mid	-1126
▁shot	-1127
emeter	-1128
▁track	-1129
▁partic	-1130
▁report	-1131
▁perform	-1132
▁included	-1133
▁previous	-1134
eb	-1135
▁Ag	-1136
▁ey	-1137
▁run	-1138
▁won	-1139
ected	-1140
▁much	-1141
▁state	-1142
▁history	-1143
abl	-1144
anc	-1145
oot	-1146
▁jo	-1147
ense	-1148
erva	-1149
fall	-1150
▁Pro	-1151
heast	-1152
▁west	-1153
▁Nerva	-1154
ets	-1155
iod	-1156
bert	-1157
▁beg	-1158
▁hel	-1159
▁top	-1160
▁way	-1161
▁band	-1162
▁came	-1163
▁caus	-1164
▁third	-1165
▁During	-1166
▁appear	-1167
▁embass	-1168
roy	-1169
▁dr	-1170
ship	-1171
▁arr	-1172
▁fam	-1173
▁few	-1174
▁sold	-1175
▁river	-1176
▁strong	-1177
▁continued	-1178
ages	-1179
aves	-1180
ivil	-1181
▁ele	-1182
▁John	-1183
▁York	-1184
▁hand	-1185
▁road	-1186
▁cover	-1187
▁States	-1188
▁former	-1189
▁period	-1190
▁ironclads	-1191
▁Bl	-1192
cher	-1193
ctor	-1194
omet	-1195
pril	-1196
rent	-1197
▁eng	-1198
▁var	-1199
▁Head	-1200
ording	-1201
▁April	-1202
▁place	-1203
▁career	-1204
iversity	-1205
▁destroy	-1206
▁embassy	-1207
▁although	-1208
alk	-1209
ues	-1210
▁er	-1211
idge	-1212
omin	-1213
▁kill	-1214
raltar	-1215
▁heavy	-1216
▁round	-1217
▁result	-1218
▁December	-1219
▁division	-1220
▁Gibraltar	-1221
▁considered	-1222
ty	-1223
onn	-1224
tal	-1225
▁Do	-1226
ital	-1227
uted	-1228
▁del	-1229
▁spe	-1230
▁When	-1231
▁conf	-1232
▁name	-1233
▁pain	-1234
▁cross	-1235
▁force	-1236
▁milit	-1237
▁music	-1238
▁world	-1239
▁damage	-1240
ve	-1241
ink	-1242
ural	-1243
▁Ball	-1244
▁conv	-1245
▁There	-1246
▁still	-1247
▁establ	-1248
▁troops	-1249
hy	-1250
med	-1251
▁if	-1252
▁sk	-1253
erry	-1254
▁cre	-1255
▁cur	-1256
▁pur	-1257
ional	-1258
▁hour	-1259
▁late	-1260
▁open	-1261
▁prot	-1262
▁stri	-1263
▁estim	-1264
▁modern	-1265
▁Austral	-1266
MA	-1267
▁go	-1268
▁Bea	-1269
▁Reg	-1270
▁Und	-1271
▁half	-1272
▁mark	-1273
▁poem	-1274
▁formed	-1275
by	-1276
enc	-1277
ior	-1278
ove	-1279
atic	-1280
ness	-1281
▁Par	-1282
▁bre	-1283
▁expl	-1284
▁home	-1285
▁peak	-1286
▁view	-1287
▁These	-1288
▁public	-1289
▁further	-1290
ane	-1291
ash	-1292
ongs	-1293
▁Dod	-1294
▁Mar	-1295
▁comb	-1296
ically	-1297
▁fight	-1298
▁front	-1299
▁organ	-1300
▁those	-1301
▁Austri	-1302
▁Beauty	-1303
▁another	-1304
▁received	-1305
▁Battalion	-1306
que	-1307
rap	-1308
yal	-1309
▁gu	-1310
aded	-1311
arly	-1312
cept	-1313
ides	-1314
▁equ	-1315
ently	-1316
▁arch	-1317
▁infl	-1318
▁contr	-1319
▁miles	-1320
▁school	-1321
▁cemeter	-1322
▁located	-1323
▁addition	-1324
ll	-1325
▁%	-1326
elt	-1327
▁Fl	-1328
alth	-1329
▁deb	-1330
▁tit	-1331
▁rest	-1332
▁belie	-1333
▁month	-1334
▁water	-1335
▁Battle	-1336
▁typhoon	-1337
oci	-1338
omb	-1339
▁mm	-1340
▁Russ	-1341
▁last	-1342
▁side	-1343
▁March	-1344
▁forces	-1345
▁University	-1346
▁Championship	-1347
RA	-1348
aim	-1349
iam	-1350
ona	-1351
▁mar	-1352
craft	-1353
ossal	-1354
▁Oper	-1355
▁fore	-1356
▁just	-1357
embers	-1358
lected	-1359
▁Angel	-1360
▁Gener	-1361
▁games	-1362
▁Doctor	-1363
▁making	-1364
▁Q	-1365
min	-1366
▁By	-1367
▁Tr	-1368
▁mi	-1369
▁Eng	-1370
▁Mon	-1371
epend	-1372
ither	-1373
▁Imag	-1374
▁init	-1375
▁will	-1376
▁youn	-1377
uation	-1378
▁Christ	-1379
▁League	-1380
▁battle	-1381
▁histor	-1382
▁played	-1383
▁repres	-1384
▁military	-1385
app	-1386
isod	-1387
iven	-1388
onal	-1389
rial	-1390
▁days	-1391
▁surv	-1392
▁coach	-1393
▁differ	-1394
▁episod	-1395
▁control	-1396
▁depression	-1397
ech	-1398
ged	-1399
orp	-1400
urb	-1401
ably	-1402
ects	-1403
oren	-1404
▁His	-1405
▁cle	-1406
isted	-1407
▁best	-1408
▁face	-1409
▁lost	-1410
▁sout	-1411
▁Royal	-1412
▁local	-1413
▁night	-1414
▁General	-1415
▁reached	-1416
▁aircraft	-1417
▁developed	-1418
zo	-1419
ody	-1420
▁La	-1421
ances	-1422
ences	-1423
peror	-1424
▁Cent	-1425
▁City	-1426
▁With	-1427
▁very	-1428
▁wide	-1429
▁boats	-1430
▁across	-1431
▁placed	-1432
▁constru	-1433
ale	-1434
ild	-1435
let	-1436
oth	-1437
row	-1438
uth	-1439
oman	-1440
self	-1441
▁beh	-1442
▁hom	-1443
ering	-1444
▁defe	-1445
▁prog	-1446
▁wood	-1447
▁based	-1448
▁close	-1449
▁character	-1450
▁described	-1451
▁production	-1452
ef	-1453
ley	-1454
son	-1455
acon	-1456
istr	-1457
lmec	-1458
▁One	-1459
▁iss	-1460
ature	-1461
▁Olmec	-1462
▁great	-1463
emorial	-1464
▁members	-1465
▁Squadron	-1466
uz	-1467
eded	-1468
iers	-1469
iter	-1470
jona	-1471
phib	-1472
▁JMA	-1473
▁Sen	-1474
▁She	-1475
olved	-1476
▁Muse	-1477
▁rain	-1478
▁stat	-1479
▁suff	-1480
▁tanks	-1481
▁Arjona	-1482
▁battles	-1483
▁remained	-1484
▁Operation	-1485
▁estimated	-1486
▁Be	-1487
▁av	-1488
inese	-1489
ittle	-1490
ensive	-1491
▁influ	-1492
ulation	-1493
▁strike	-1494
▁Chinese	-1495
▁Koreans	-1496
▁century	-1497
▁destroyed	-1498
▁represent	-1499
FC	-1500
au	-1501
die	-1502
yle	-1503
▁la	-1504
reet	-1505
▁Int	-1506
▁UFC	-1507
▁lim	-1508
▁conc	-1509
▁Eddie	-1510
▁While	-1511
▁simil	-1512
imately	-1513
▁country	-1514
▁produced	-1515
uc	-1516
ont	-1517
urr	-1518
▁Po	-1519
less	-1520
▁Span	-1521
▁prop	-1522
▁event	-1523
▁caused	-1524
▁import	-1525
▁killed	-1526
▁episode	-1527
▁discover	-1528
▁national	-1529
acy	-1530
aly	-1531
aul	-1532
ize	-1533
▁El	-1534
▁We	-1535
ival	-1536
ouse	-1537
ster	-1538
west	-1539
▁Bro	-1540
▁Met	-1541
▁Nak	-1542
▁det	-1543
▁low	-1544
▁sent	-1545
ective	-1546
ferred	-1547
vision	-1548
▁River	-1549
▁total	-1550
▁present	-1551
▁respons	-1552
▁intensity	-1553
bo	-1554
ead	-1555
ots	-1556
uel	-1557
▁..	-1558
rodu	-1559
rote	-1560
used	-1561
▁Rep	-1562
▁fle	-1563
▁ins	-1564
▁sug	-1565
riend	-1566
▁Army	-1567
▁Port	-1568
▁Will	-1569
▁died	-1570
orenzo	-1571
▁Derry	-1572
▁using	-1573
▁commun	-1574
▁Lorenzo	-1575
▁himself	-1576
▁however	-1577
▁ordered	-1578
▁service	-1579
▁species	-1580
▁development	-1581
emy	-1582
enn	-1583
▁Ge	-1584
▁II	-1585
akes	-1586
ript	-1587
▁Cal	-1588
▁Off	-1589
▁hit	-1590
▁rad	-1591
▁reb	-1592
▁sit	-1593
▁away	-1594
▁earl	-1595
▁make	-1596
▁Award	-1597
▁Bacon	-1598
▁China	-1599
▁short	-1600
▁wrote	-1601
▁announ	-1602
▁suggest	-1603
▁returned	-1604
ned	-1605
▁Gr	-1606
▁fr	-1607
ades	-1608
sion	-1609
▁...	-1610
▁Fil	-1611
▁Jew	-1612
▁bas	-1613
icult	-1614
ograp	-1615
▁Best	-1616
▁Rick	-1617
▁Year	-1618
▁book	-1619
▁felt	-1620
▁real	-1621
▁exper	-1622
▁range	-1623
▁title	-1624
▁center	-1625
▁cyclone	-1626
▁pitcher	-1627
▁Although	-1628
▁signific	-1629
▁northeast	-1630
ai	-1631
ara	-1632
eal	-1633
ator	-1634
enes	-1635
head	-1636
reng	-1637
tong	-1638
▁fre	-1639
▁vis	-1640
asket	-1641
enced	-1642
▁capt	-1643
▁less	-1644
▁role	-1645
ention	-1646
▁Ricky	-1647
▁image	-1648
▁naval	-1649
▁quick	-1650
▁right	-1651
▁Naktong	-1652
asketball	-1653
men	-1654
▁Pr	-1655
augh	-1656
ebru	-1657
echn	-1658
ison	-1659
▁Hit	-1660
▁Mex	-1661
▁Per	-1662
▁Rec	-1663
▁too	-1664
▁King	-1665
▁cond	-1666
▁plan	-1667
ampion	-1668
▁Febru	-1669
▁child	-1670
▁civil	-1671
▁press	-1672
▁having	-1673
▁Spanish	-1674
▁similar	-1675
▁February	-1676
▁significant	-1677
ole	-1678
par	-1679
▁Mc	-1680
▁ph	-1681
▁Acc	-1682
▁Cla	-1683
▁Sar	-1684
▁dem	-1685
▁Lond	-1686
▁bomb	-1687
▁camp	-1688
▁lack	-1689
▁seen	-1690
▁went	-1691
▁Stein	-1692
▁armor	-1693
▁every	-1694
▁least	-1695
▁never	-1696
▁often	-1697
ization	-1698
▁special	-1699
▁started	-1700
▁without	-1701
▁Tropical	-1702
▁building	-1703
eth	-1704
irc	-1705
rog	-1706
atin	-1707
ices	-1708
pted	-1709
reen	-1710
sequ	-1711
▁Dan	-1712
▁Pac	-1713
▁fav	-1714
▁hum	-1715
▁med	-1716
▁tur	-1717
ience	-1718
itive	-1719
▁star	-1720
▁take	-1721
▁tons	-1722
weight	-1723
▁claim	-1724
▁scene	-1725
▁Hitler	-1726
▁become	-1727
▁compet	-1728
▁entire	-1729
▁friend	-1730
▁Typhoon	-1731
ification	-1732
▁particular	-1733
idd	-1734
ium	-1735
lex	-1736
ards	-1737
eder	-1738
iety	-1739
▁Bul	-1740
▁cas	-1741
▁leg	-1742
▁mor	-1743
▁par	-1744
▁put	-1745
▁tem	-1746
ament	-1747
igned	-1748
ummer	-1749
▁Jack	-1750
▁vide	-1751
▁Roman	-1752
▁Wrest	-1753
▁given	-1754
▁works	-1755
▁behind	-1756
▁inning	-1757
▁streng	-1758
▁though	-1759
▁America	-1760
▁complete	-1761
▁designed	-1762
▁important	-1763
▁transport	-1764
mp	-1765
▁Os	-1766
ands	-1767
orne	-1768
rior	-1769
▁Air	-1770
▁Sch	-1771
▁eye	-1772
▁saw	-1773
eared	-1774
empor	-1775
▁base	-1776
▁cour	-1777
▁diff	-1778
▁exec	-1779
▁find	-1780
▁gave	-1781
▁vict	-1782
▁Heavy	-1783
▁State	-1784
▁broad	-1785
▁order	-1786
▁story	-1787
▁London	-1788
▁Street	-1789
▁either	-1790
▁William	-1791
▁section	-1792
▁features	-1793
▁soldiers	-1794
▁squadron	-1795
▁According	-1796
rd	-1797
ape	-1798
esc	-1799
▁Te	-1800
ency	-1801
▁exc	-1802
▁fig	-1803
▁obs	-1804
ipped	-1805
▁once	-1806
▁supp	-1807
▁vill	-1808
astern	-1809
estern	-1810
perial	-1811
▁eight	-1812
▁techn	-1813
▁Island	-1814
▁amphib	-1815
▁thought	-1816
▁Independ	-1817
▁Tetrarchs	-1818
▁different	-1819
▁strikeout	-1820
▁basketball	-1821
▁cemeteries	-1822
▁successful	-1823
AA	-1824
gr	-1825
me	-1826
aff	-1827
ges	-1828
ham	-1829
ico	-1830
▁Gl	-1831
▁el	-1832
▁tw	-1833
ches	-1834
cing	-1835
ills	-1836
most	-1837
ploy	-1838
▁see	-1839
▁ten	-1840
itted	-1841
inally	-1842
▁among	-1843
▁areas	-1844
▁action	-1845
▁player	-1846
▁review	-1847
▁project	-1848
▁original	-1849
▁established	-1850
now	-1851
▁Eu	-1852
▁get	-1853
▁pal	-1854
anted	-1855
aying	-1856
ested	-1857
ishop	-1858
▁Char	-1859
▁Hall	-1860
▁agre	-1861
▁song	-1862
▁trad	-1863
▁unit	-1864
▁Europ	-1865
▁chang	-1866
▁style	-1867
▁times	-1868
▁France	-1869
▁proble	-1870
▁battleship	-1871
▁operations	-1872
▁X	-1873
ief	-1874
umn	-1875
▁Sec	-1876
▁Sup	-1877
▁fac	-1878
▁opp	-1879
asing	-1880
tered	-1881
▁circ	-1882
▁look	-1883
▁prim	-1884
▁coast	-1885
▁poems	-1886
▁steam	-1887
olution	-1888
▁Europe	-1889
▁attemp	-1890
▁weaken	-1891
▁Pacific	-1892
▁allowed	-1893
▁warship	-1894
▁colossal	-1895
▁reported	-1896
▁Australia	-1897
fr	-1898
gy	-1899
der	-1900
get	-1901
oly	-1902
ros	-1903
str	-1904
ador	-1905
cast	-1906
stit	-1907
ways	-1908
ying	-1909
alist	-1910
amily	-1911
dress	-1912
inted	-1913
▁Some	-1914
▁dead	-1915
▁hous	-1916
▁tele	-1917
▁Latin	-1918
▁begin	-1919
▁Senate	-1920
▁fourth	-1921
▁writing	-1922
▁Regiment	-1923
▁announced	-1924
▁headdress	-1925
mar	-1926
tic	-1927
▁SM	-1928
▁Sy	-1929
aign	-1930
berg	-1931
empt	-1932
gers	-1933
imum	-1934
medi	-1935
quar	-1936
▁Can	-1937
▁Har	-1938
▁Mal	-1939
▁far	-1940
▁how	-1941
▁mag	-1942
▁ren	-1943
cture	-1944
osing	-1945
▁Park	-1946
▁able	-1947
▁hold	-1948
▁hull	-1949
▁prob	-1950
▁proc	-1951
ements	-1952
▁Early	-1953
▁displ	-1954
▁lines	-1955
urrican	-1956
▁Angela	-1957
▁Jewish	-1958
▁Mexico	-1959
▁joined	-1960
ological	-1961
▁decided	-1962
▁introdu	-1963
▁rainfall	-1964
▁replaced	-1965
▁previously	-1966
▁Heavyweight	-1967
dom	-1968
inc	-1969
ush	-1970
ves	-1971
▁Ab	-1972
▁Sc	-1973
▁gl	-1974
aker	-1975
cend	-1976
cted	-1977
illa	-1978
line	-1979
orks	-1980
▁Afr	-1981
▁Ben	-1982
▁Mir	-1983
▁Pre	-1984
▁aff	-1985
▁exh	-1986
ailed	-1987
oured	-1988
▁foot	-1989
▁laun	-1990
▁scul	-1991
▁First	-1992
▁Other	-1993
▁Storm	-1994
▁added	-1995
▁colle	-1996
▁maint	-1997
▁route	-1998
▁skull	-1999
▁Republ	-2000
▁almost	-2001
▁armour	-2002
▁studio	-2003
urricane	-2004
▁damaged	-2005
▁prevent	-2006
▁quickly	-2007
▁appeared	-2008
▁monument	-2009
▁difficult	-2010
▁positions	-2011
ternational	-2012
TW	-2013
su	-2014
TWC	-2015
▁CR	-2016
▁Se	-2017
▁Sm	-2018
angu	-2019
oned	-2020
orps	-2021
▁cut	-2022
▁law	-2023
ories	-2024
stant	-2025
uthor	-2026
▁JTWC	-2027
▁Mich	-2028
▁Rome	-2029
▁host	-2030
imeter	-2031
▁Angle	-2032
▁Major	-2033
▁indic	-2034
▁point	-2035
▁remov	-2036
▁video	-2037
ference	-2038
▁member	-2039
▁served	-2040
▁should	-2041
▁struck	-2042
▁central	-2043
▁intended	-2044
▁Philippine	-2045
▁my	-2046
itor	-2047
▁Ass	-2048
▁Lie	-2049
▁Min	-2050
▁Two	-2051
▁age	-2052
▁bus	-2053
▁hig	-2054
▁nec	-2055
▁syn	-2056
▁tor	-2057
arian	-2058
asion	-2059
aster	-2060
▁High	-2061
▁Hill	-2062
▁Hist	-2063
▁coun	-2064
▁deep	-2065
▁meet	-2066
▁sect	-2067
ongsan	-2068
rought	-2069
▁above	-2070
▁human	-2071
▁somet	-2072
▁steel	-2073
▁units	-2074
▁associ	-2075
▁conver	-2076
▁latter	-2077
▁poetry	-2078
▁rather	-2079
▁company	-2080
▁pattern	-2081
▁involved	-2082
▁official	-2083
▁possible	-2084
isc	-2085
unk	-2086
▁Re	-2087
▁To	-2088
▁hy	-2089
ivid	-2090
oice	-2091
▁And	-2092
▁Dom	-2093
▁Pol	-2094
▁You	-2095
▁fif	-2096
▁gen	-2097
▁ide	-2098
▁inj	-2099
▁pra	-2100
▁val	-2101
▁you	-2102
borne	-2103
ising	-2104
▁Youn	-2105
▁crew	-2106
▁rank	-2107
▁slow	-2108
▁Clara	-2109
▁clear	-2110
▁hours	-2111
▁seven	-2112
ability	-2113
▁critic	-2114
▁others	-2115
▁promot	-2116
▁region	-2117
bassador	-2118
▁Russian	-2119
▁Yongsan	-2120
▁include	-2121
▁popular	-2122
▁release	-2123
▁attacked	-2124
▁followed	-2125
▁regiment	-2126
▁northwest	-2127
▁tradition	-2128
▁discovered	-2129
▁responsible	-2130
▁construction	-2131
oul	-2132
▁Or	-2133
▁VI	-2134
ales	-2135
ania	-2136
iest	-2137
iser	-2138
orts	-2139
▁Hol	-2140
▁Val	-2141
▁enc	-2142
▁kil	-2143
▁lif	-2144
aters	-2145
elled	-2146
iness	-2147
iting	-2148
ondyl	-2149
▁Ital	-2150
▁conn	-2151
▁good	-2152
ground	-2153
ington	-2154
▁Claud	-2155
▁Count	-2156
▁avail	-2157
▁below	-2158
▁block	-2159
▁flood	-2160
▁ident	-2161
▁langu	-2162
▁reach	-2163
ountain	-2164
unction	-2165
▁family	-2166
ospondyl	-2167
▁current	-2168
▁outside	-2169
▁process	-2170
▁written	-2171
▁Austrian	-2172
▁appearance	-2173
ox	-2174
for	-2175
ogn	-2176
raw	-2177
ula	-2178
ule	-2179
▁Dr	-2180
enth	-2181
ique	-2182
pedo	-2183
ries	-2184
▁Raw	-2185
▁foc	-2186
▁non	-2187
▁vol	-2188
erous	-2189
iring	-2190
ready	-2191
stein	-2192
▁Type	-2193
▁adap	-2194
▁adop	-2195
▁army	-2196
▁dark	-2197
▁diss	-2198
▁fact	-2199
▁loss	-2200
▁upon	-2201
lement	-2202
ressed	-2203
▁Great	-2204
▁deter	-2205
▁house	-2206
▁names	-2207
▁withd	-2208
ination	-2209
▁Museum	-2210
▁island	-2211
▁stated	-2212
▁wooden	-2213
▁Dodgers	-2214
▁approach	-2215
▁contract	-2216
yn	-2217
amb	-2218
con	-2219
ino	-2220
ney	-2221
reg	-2222
▁Qu	-2223
▁Su	-2224
▁sw	-2225
ping	-2226
pire	-2227
uees	-2228
urch	-2229
uros	-2230
▁ERA	-2231
▁Pal	-2232
▁div	-2233
▁hor	-2234
▁oil	-2235
▁tre	-2236
board	-2237
field	-2238
istic	-2239
ology	-2240
▁Four	-2241
▁Hung	-2242
▁Mort	-2243
▁appo	-2244
▁body	-2245
▁decl	-2246
▁full	-2247
▁meas	-2248
▁plac	-2249
▁read	-2250
▁sour	-2251
▁surf	-2252
▁Under	-2253
▁becom	-2254
▁debut	-2255
▁fleet	-2256
▁level	-2257
▁liter	-2258
▁polit	-2259
▁super	-2260
▁Office	-2261
▁better	-2262
▁depart	-2263
▁inters	-2264
▁minute	-2265
▁months	-2266
▁slight	-2267
emporary	-2268
▁Italian	-2269
▁attempt	-2270
▁carried	-2271
▁innings	-2272
▁torpedo	-2273
nospondyl	-2274
▁training	-2275
▁commander	-2276
▁published	-2277
▁evacuation	-2278
▁championship	-2279
ae	-2280
go	-2281
lo	-2282
to	-2283
yr	-2284
che	-2285
off	-2286
ple	-2287
awak	-2288
azan	-2289
here	-2290
iber	-2291
olyn	-2292
▁Big	-2293
▁Jos	-2294
▁anc	-2295
▁ask	-2296
▁cru	-2297
ample	-2298
anned	-2299
iente	-2300
onald	-2301
▁Lock	-2302
▁Sant	-2303
▁bank	-2304
▁case	-2305
▁does	-2306
▁hard	-2307
▁rear	-2308
▁site	-2309
▁Dream	-2310
▁Force	-2311
▁James	-2312
▁accom	-2313
▁ended	-2314
▁stone	-2315
▁wrest	-2316
ividual	-2317
ramuros	-2318
▁groups	-2319
▁little	-2320
▁police	-2321
▁recogn	-2322
▁signed	-2323
▁toward	-2324
▁turned	-2325
▁Sarawak	-2326
▁already	-2327
▁comment	-2328
▁morning	-2329
▁Monument	-2330
▁believed	-2331
▁evacuees	-2332
▁infantry	-2333
▁language	-2334
▁movement	-2335
▁particip	-2336
▁probably	-2337
▁required	-2338
▁hurricane	-2339
▁initially	-2340
▁Intramuros	-2341
▁Independiente	-2342
▁z	-2343
▁’	-2344
ago	-2345
aps	-2346
acit	-2347
atch	-2348
erve	-2349
iral	-2350
lish	-2351
rown	-2352
utes	-2353
▁Fit	-2354
▁Kir	-2355
▁arg	-2356
▁che	-2357
arily	-2358
ivity	-2359
rated	-2360
▁Most	-2361
▁Vict	-2362
▁desp	-2363
▁list	-2364
▁mach	-2365
▁miss	-2366
▁redu	-2367
ending	-2368
graded	-2369
▁Domit	-2370
▁Gazan	-2371
▁Pound	-2372
▁break	-2373
▁elect	-2374
▁magaz	-2375
▁plant	-2376
▁sound	-2377
▁Center	-2378
▁County	-2379
▁Follow	-2380
▁events	-2381
▁father	-2382
▁passed	-2383
▁status	-2384
quarters	-2385
▁Britain	-2386
▁Carolyn	-2387
▁attacks	-2388
▁earlier	-2389
▁emperor	-2390
▁instead	-2391
▁largest	-2392
▁removed	-2393
▁commemor	-2394
▁memorial	-2395
▁southern	-2396
▁available	-2397
▁remaining	-2398
▁originally	-2399
▁throughout	-2400
▁transferred	-2401
AS	-2402
ki	-2403
ne	-2404
ott	-2405
oud	-2406
teb	-2407
uff	-2408
▁Bo	-2409
▁NK	-2410
▁ce	-2411
alls	-2412
ayed	-2413
ving	-2414
▁cop	-2415
▁max	-2416
▁nar	-2417
▁rap	-2418
▁rul	-2419
▁sat	-2420
allen	-2421
ators	-2422
thing	-2423
utive	-2424
▁Base	-2425
▁Bill	-2426
▁Geor	-2427
▁born	-2428
igence	-2429
illery	-2430
▁Stone	-2431
▁Young	-2432
▁occup	-2433
▁reign	-2434
▁taken	-2435
▁thick	-2436
▁Second	-2437
▁Victor	-2438
▁approx	-2439
▁change	-2440
▁immedi	-2441
▁indust	-2442
▁longer	-2443
▁patrol	-2444
▁script	-2445
▁Another	-2446
▁English	-2447
▁Mortier	-2448
▁descend	-2449
▁maximum	-2450
▁program	-2451
▁towards	-2452
▁various	-2453
▁village	-2454
▁Champion	-2455
▁Imperial	-2456
▁defeated	-2457
▁provided	-2458
▁Following	-2459
▁characters	-2460
ij	-2461
ny	-2462
abb	-2463
leg	-2464
the	-2465
mitt	-2466
rief	-2467
ties	-2468
ully	-2469
▁Sea	-2470
▁Ver	-2471
▁bur	-2472
▁cal	-2473
▁esc	-2474
venue	-2475
▁Camp	-2476
▁From	-2477
▁Jane	-2478
▁Pres	-2479
▁aver	-2480
▁cert	-2481
▁deck	-2482
▁extr	-2483
▁load	-2484
▁pred	-2485
▁prof	-2486
▁walk	-2487
ential	-2488
idents	-2489
▁Chang	-2490
▁enemy	-2491
▁radio	-2492
▁Avenue	-2493
▁Bishop	-2494
▁centre	-2495
▁detail	-2496
▁verteb	-2497
▁Kingdom	-2498
▁armored	-2499
▁arrived	-2500
▁complex	-2501
▁example	-2502
▁general	-2503
elligence	-2504
▁directed	-2505
▁pressure	-2506
▁selected	-2507
▁strength	-2508
▁artillery	-2509
▁operation	-2510
▁increasing	-2511
▁individual	-2512
▁population	-2513
▁battleships	-2514
sp	-2515
bon	-2516
ena	-2517
iec	-2518
ili	-2519
oke	-2520
ube	-2521
▁Ac	-2522
▁HM	-2523
inct	-2524
iple	-2525
ring	-2526
yman	-2527
▁Ant	-2528
▁Bar	-2529
▁IRA	-2530
▁Med	-2531
▁Nap	-2532
▁Tor	-2533
▁bad	-2534
▁dou	-2535
▁flo	-2536
▁hon	-2537
▁mot	-2538
Works	-2539
anced	-2540
inent	-2541
onius	-2542
▁Desp	-2543
▁Germ	-2544
▁Matt	-2545
▁Paul	-2546
▁Rock	-2547
▁cast	-2548
▁disp	-2549
▁exam	-2550
▁heav	-2551
▁qual	-2552
▁vess	-2553
action	-2554
ployed	-2555
uments	-2556
▁Fitts	-2557
▁Kirby	-2558
▁brief	-2559
▁chart	-2560
▁exist	-2561
▁frequ	-2562
▁genus	-2563
▁imped	-2564
▁impro	-2565
▁mouth	-2566
▁poets	-2567
▁sides	-2568
▁stand	-2569
▁young	-2570
▁Family	-2571
▁Heyman	-2572
▁agreed	-2573
▁archit	-2574
▁batter	-2575
▁except	-2576
▁houses	-2577
▁scenes	-2578
▁Despite	-2579
▁Emperor	-2580
▁brought	-2581
▁forward	-2582
▁pitched	-2583
▁subject	-2584
▁subsequ	-2585
▁campaign	-2586
▁decision	-2587
▁problems	-2588
▁appointed	-2589
▁community	-2590
▁completed	-2591
▁DreamWorks	-2592
▁amphibians	-2593
▁International	-2594
ga	-2595
▁!	-2596
eds	-2597
iot	-2598
pir	-2599
▁Ke	-2600
▁ra	-2601
ened	-2602
igan	-2603
ondo	-2604
onna	-2605
ples	-2606
▁aud	-2607
▁deg	-2608
▁dev	-2609
▁lab	-2610
▁sis	-2611
ander	-2612
oston	-2613
ulted	-2614
▁Amos	-2615
▁Arch	-2616
▁Both	-2617
▁Mass	-2618
▁That	-2619
▁anim	-2620
▁cost	-2621
▁drop	-2622
▁imag	-2623
▁move	-2624
▁seem	-2625
▁stra	-2626
▁weap	-2627
▁wife	-2628
elling	-2629
ishing	-2630
quatic	-2631
▁Corps	-2632
▁Feder	-2633
▁Later	-2634
▁Space	-2635
▁award	-2636
▁carri	-2637
▁homes	-2638
ilities	-2639
▁Boston	-2640
▁Danube	-2641
▁Donald	-2642
▁Indian	-2643
▁Osbert	-2644
▁author	-2645
▁ground	-2646
▁larger	-2647
▁screen	-2648
▁threat	-2649
▁despite	-2650
▁leaving	-2651
▁praised	-2652
▁working	-2653
▁Lockport	-2654
▁director	-2655
▁fighting	-2656
▁invasion	-2657
▁landfall	-2658
▁slightly	-2659
▁suffered	-2660
▁Australian	-2661
▁associated	-2662
▁television	-2663
▁particularly	-2664
bs	-2665
dle	-2666
isl	-2667
ope	-2668
unt	-2669
win	-2670
▁ap	-2671
▁ke	-2672
ateg	-2673
ault	-2674
icop	-2675
ipal	-2676
ords	-2677
rael	-2678
teen	-2679
work	-2680
▁Ise	-2681
▁Jim	-2682
▁USS	-2683
▁era	-2684
▁esp	-2685
▁wid	-2686
igade	-2687
▁Burn	-2688
▁East	-2689
▁Film	-2690
▁Iron	-2691
▁Suet	-2692
▁coll	-2693
▁laid	-2694
▁mass	-2695
▁priv	-2696
▁soon	-2697
▁evacu	-2698
▁exhib	-2699
▁mater	-2700
▁nomin	-2701
▁rapid	-2702
▁score	-2703
▁separ	-2704
▁speed	-2705
▁suppl	-2706
ibility	-2707
issance	-2708
ography	-2709
ospital	-2710
▁Associ	-2711
▁Govern	-2712
▁Israel	-2713
▁Spacey	-2714
▁combat	-2715
▁crater	-2716
▁dissip	-2717
▁enough	-2718
▁headst	-2719
▁living	-2720
▁observ	-2721
▁unable	-2722
irection	-2723
▁Imagist	-2724
▁Schmitt	-2725
▁Steiner	-2726
▁helicop	-2727
▁kilomet	-2728
▁overall	-2729
▁Memorial	-2730
▁Michigan	-2731
▁consider	-2732
▁finished	-2733
▁northern	-2734
▁straight	-2735
▁surround	-2736
▁upgraded	-2737
▁vertebra	-2738
▁weakened	-2739
▁Suetonius	-2740
▁attempted	-2741
▁beginning	-2742
▁increased	-2743
▁performed	-2744
▁eventually	-2745
▁performance	-2746
▁approximately	-2747
sc	-2748
ASA	-2749
iol	-2750
key	-2751
ris	-2752
ude	-2753
clus	-2754
etts	-2755
lymp	-2756
orak	-2757
ripp	-2758
▁HMS	-2759
▁Rev	-2760
▁ant	-2761
▁sex	-2762
▁son	-2763
▁typ	-2764
achus	-2765
asons	-2766
rying	-2767
stand	-2768
▁Bert	-2769
▁Brad	-2770
▁Free	-2771
▁Serv	-2772
▁deal	-2773
▁eyes	-2774
▁free	-2775
▁know	-2776
▁step	-2777
▁sust	-2778
▁told	-2779
acitus	-2780
nowmen	-2781
orated	-2782
ration	-2783
▁Canad	-2784
▁Civil	-2785
▁Olymp	-2786
▁Sever	-2787
▁advis	-2788
▁bring	-2789
▁favor	-2790
▁forms	-2791
▁prior	-2792
ecially	-2793
▁Agripp	-2794
▁Awards	-2795
▁Church	-2796
▁School	-2797
▁Summer	-2798
▁always	-2799
▁column	-2800
▁forced	-2801
▁graves	-2802
▁invest	-2803
▁necess	-2804
▁turret	-2805
▁wanted	-2806
▁Charles	-2807
▁Tacitus	-2808
▁average	-2809
▁challen	-2810
▁created	-2811
▁limited	-2812
▁version	-2813
achusetts	-2814
▁Domitian	-2815
▁assigned	-2816
▁captured	-2817
▁composed	-2818
▁cyclones	-2819
▁positive	-2820
▁resulted	-2821
▁warships	-2822
▁President	-2823
▁relations	-2824
▁Ambassador	-2825
▁strikeouts	-2826
▁Massachusetts	-2827
AG	-2828
co	-2829
amm	-2830
com	-2831
eng	-2832
erc	-2833
ils	-2834
itz	-2835
ony	-2836
▁De	-2837
▁UT	-2838
amer	-2839
aped	-2840
atal	-2841
ials	-2842
iles	-2843
reak	-2844
tain	-2845
uing	-2846
▁Dep	-2847
▁Los	-2848
▁Pet	-2849
▁Tur	-2850
▁aid	-2851
▁cou	-2852
▁got	-2853
▁neg	-2854
▁pen	-2855
▁sen	-2856
▁ult	-2857
aring	-2858
fully	-2859
oleon	-2860
uture	-2861
▁Mark	-2862
▁Show	-2863
▁cult	-2864
▁date	-2865
▁edge	-2866
▁feel	-2867
▁grow	-2868
▁join	-2869
▁mean	-2870
▁pair	-2871
▁poor	-2872
▁rule	-2873
▁term	-2874
ession	-2875
otilla	-2876
▁Since	-2877
▁aband	-2878
▁lower	-2879
▁paint	-2880
▁ridge	-2881
▁spent	-2882
▁teams	-2883
ertaker	-2884
▁Africa	-2885
▁Empire	-2886
▁common	-2887
▁explos	-2888
▁figure	-2889
▁interv	-2890
▁issued	-2891
▁mother	-2892
▁needed	-2893
▁worked	-2894
▁capital	-2895
▁crossed	-2896
▁leading	-2897
▁remains	-2898
▁smaller	-2899
▁station	-2900
▁surface	-2901
▁winning	-2902
▁Claudius	-2903
▁Napoleon	-2904
▁children	-2905
▁elements	-2906
▁presence	-2907
▁relative	-2908
▁Agrippina	-2909
▁supported	-2910
▁surviving	-2911
onnaissance	-2912
▁Undertaker	-2913
▁especially	-2914
uf	-2915
bor	-2916
cil	-2917
den	-2918
eks	-2919
hew	-2920
hic	-2921
hod	-2922
ima	-2923
uck	-2924
ulf	-2925
cent	-2926
omas	-2927
▁Her	-2928
▁PAG	-2929
▁hyd	-2930
▁let	-2931
▁tax	-2932
aches	-2933
conom	-2934
iforn	-2935
thlet	-2936
▁Nort	-2937
▁come	-2938
▁give	-2939
▁help	-2940
▁nine	-2941
▁past	-2942
▁prep	-2943
▁self	-2944
▁size	-2945
▁stop	-2946
alions	-2947
atives	-2948
ounded	-2949
ulated	-2950
▁condu	-2951
▁confl	-2952
▁faced	-2953
▁field	-2954
▁leave	-2955
▁monit	-2956
▁occur	-2957
▁pract	-2958
▁shell	-2959
▁staff	-2960
▁whose	-2961
aughter	-2962
ifornia	-2963
ministr	-2964
▁Common	-2965
▁PAGASA	-2966
▁active	-2967
▁future	-2968
▁highly	-2969
▁inform	-2970
▁moving	-2971
▁person	-2972
▁saying	-2973
▁Angeles	-2974
▁Germany	-2975
▁Imagism	-2976
▁machine	-2977
▁planned	-2978
▁western	-2979
▁Mountain	-2980
▁business	-2981
▁football	-2982
▁magazine	-2983
▁measures	-2984
▁supplies	-2985
▁currently	-2986
▁impedance	-2987
▁sustained	-2988
▁California	-2989
▁battalions	-2990
▁commission	-2991
▁conditions	-2992
▁historians	-2993
▁contemporary	-2994
▁headquarters	-2995
ma	-2996
CAA	-2997
ams	-2998
eph	-2999
hab	-3000
hys	-3001
ita	-3002
▁Dü	-3003
▁UN	-3004
▁ve	-3005
andy	-3006
aust	-3007
cean	-3008
chie	-3009
ging	-3010
ints	-3011
izal	-3012
ogue	-3013
plic	-3014
roat	-3015
▁Bel	-3016
▁Day	-3017
▁Pop	-3018
▁USA	-3019
▁dra	-3020
▁ill	-3021
▁red	-3022
▁sal	-3023
▁unc	-3024
acted	-3025
assic	-3026
emple	-3027
icans	-3028
light	-3029
▁Game	-3030
▁Gold	-3031
▁Guam	-3032
▁Trip	-3033
▁cann	-3034
▁fast	-3035
▁fell	-3036
▁fort	-3037
▁fund	-3038
▁pick	-3039
▁piec	-3040
▁pool	-3041
▁rock	-3042
▁says	-3043
▁task	-3044
▁terr	-3045
▁viol	-3046
▁weak	-3047
ctions	-3048
ension	-3049
▁Black	-3050
▁Distr	-3051
▁Düren	-3052
▁Museo	-3053
▁Rizal	-3054
▁Sport	-3055
▁Super	-3056
▁bones	-3057
▁fully	-3058
▁meant	-3059
▁shear	-3060
▁shoot	-3061
▁think	-3062
▁weeks	-3063
agement	-3064
▁Dodger	-3065
▁commer	-3066
▁effect	-3067
▁engine	-3068
▁marked	-3069
▁office	-3070
▁remain	-3071
▁sculpt	-3072
▁search	-3073
▁Austria	-3074
▁Brigade	-3075
▁brother	-3076
▁collect	-3077
▁contrib	-3078
▁critics	-3079
▁feature	-3080
▁landing	-3081
▁meeting	-3082
▁request	-3083
▁setting	-3084
▁District	-3085
▁combined	-3086
▁compound	-3087
▁increase	-3088
▁interest	-3089
▁launched	-3090
▁youngest	-3091
▁establish	-3092
▁generally	-3093
▁influence	-3094
▁perimeter	-3095
▁residents	-3096
▁technique	-3097
▁Dürenstein	-3098
▁additional	-3099
▁classified	-3100
▁Association	-3101
▁immediately	-3102
▁&	-3103
aur	-3104
day	-3105
ipl	-3106
leM	-3107
nes	-3108
ota	-3109
ote	-3110
zra	-3111
▁Ex	-3112
▁Hy	-3113
anch	-3114
atre	-3115
enta	-3116
izon	-3117
osen	-3118
▁Dev	-3119
▁UTC	-3120
▁cor	-3121
▁den	-3122
▁job	-3123
▁sem	-3124
▁yet	-3125
arent	-3126
▁Boul	-3127
▁Ezra	-3128
▁Sour	-3129
▁Stra	-3130
▁Weev	-3131
▁anti	-3132
▁moun	-3133
▁mult	-3134
▁need	-3135
▁rein	-3136
▁sail	-3137
▁sequ	-3138
▁talk	-3139
▁tour	-3140
▁type	-3141
alling	-3142
atural	-3143
cepted	-3144
wealth	-3145
▁Croat	-3146
▁Spain	-3147
▁analy	-3148
▁noted	-3149
▁peace	-3150
▁refer	-3151
▁terms	-3152
▁upper	-3153
▁weigh	-3154
leMania	-3155
mission	-3156
▁Little	-3157
▁advant	-3158
▁barric	-3159
▁consec	-3160
▁defeat	-3161
▁ending	-3162
▁filter	-3163
▁likely	-3164
▁losing	-3165
▁middle	-3166
▁sports	-3167
▁temper	-3168
▁Boulter	-3169
▁England	-3170
▁Islands	-3171
▁discuss	-3172
▁entered	-3173
▁usually	-3174
▁Colossal	-3175
▁airborne	-3176
▁allowing	-3177
▁cemetery	-3178
▁daughter	-3179
▁distinct	-3180
▁majority	-3181
▁operated	-3182
▁abandoned	-3183
▁according	-3184
▁structure	-3185
▁vertebrae	-3186
▁convection	-3187
▁influenced	-3188
▁regimental	-3189
▁helicopters	-3190
▁Commonwealth	-3191
▁WrestleMania	-3192
of	-3193
car	-3194
uan	-3195
wan	-3196
▁My	-3197
arth	-3198
atri	-3199
bour	-3200
cial	-3201
ells	-3202
ishu	-3203
ogad	-3204
oses	-3205
reek	-3206
rets	-3207
uten	-3208
vers	-3209
▁Sim	-3210
▁Som	-3211
▁Vel	-3212
▁aut	-3213
▁bea	-3214
▁der	-3215
▁dyn	-3216
▁key	-3217
▁sea	-3218
▁ser	-3219
ademy	-3220
anded	-3221
icted	-3222
ively	-3223
nyong	-3224
onnel	-3225
▁Asia	-3226
▁Back	-3227
▁Chad	-3228
▁Fats	-3229
▁Over	-3230
▁Ross	-3231
▁Spec	-3232
▁Tour	-3233
▁West	-3234
▁emer	-3235
▁gard	-3236
▁happ	-3237
▁hill	-3238
▁keep	-3239
▁plat	-3240
▁raid	-3241
▁sett	-3242
▁trav	-3243
▁unsu	-3244
inated	-3245
isions	-3246
undred	-3247
▁Colle	-3248
▁Filip	-3249
▁Mogad	-3250
▁Three	-3251
▁Union	-3252
▁Venta	-3253
▁achie	-3254
▁armed	-3255
▁broke	-3256
▁flank	-3257
▁party	-3258
▁pound	-3259
chester	-3260
isation	-3261
utenant	-3262
▁Malays	-3263
▁Triple	-3264
▁assist	-3265
▁casual	-3266
▁encoun	-3267
▁failed	-3268
▁inside	-3269
▁intern	-3270
▁object	-3271
▁peaked	-3272
▁proper	-3273
▁ranked	-3274
▁severe	-3275
▁sought	-3276
▁storms	-3277
▁supply	-3278
▁taking	-3279
▁Central	-3280
▁adapted	-3281
▁conclud	-3282
▁counter	-3283
▁covered	-3284
▁defense	-3285
▁disturb	-3286
▁offered	-3287
▁players	-3288
▁weapons	-3289
▁Baseball	-3290
▁Northern	-3291
▁contrast	-3292
▁crossing	-3293
▁featured	-3294
▁literary	-3295
▁location	-3296
▁painting	-3297
▁personal	-3298
▁transfer	-3299
▁Mogadishu	-3300
▁buildings	-3301
▁prominent	-3302
▁Changnyong	-3303
▁Lieutenant	-3304
▁Manchester	-3305
▁ultimately	-3306
WG	-3307
af	-3308
ken	-3309
kes	-3310
lam	-3311
leb	-3312
nam	-3313
wer	-3314
▁Pe	-3315
abbi	-3316
apod	-3317
hing	-3318
iary	-3319
itar	-3320
noon	-3321
omen	-3322
quez	-3323
▁Ire	-3324
▁Leg	-3325
▁Luz	-3326
▁Mad	-3327
▁Que	-3328
▁Rob	-3329
▁abs	-3330
▁bod	-3331
▁bul	-3332
▁emb	-3333
▁fun	-3334
▁pay	-3335
▁pot	-3336
▁spl	-3337
▁tri	-3338
ented	-3339
iated	-3340
ously	-3341
▁Club	-3342
▁Coal	-3343
▁clos	-3344
▁numb	-3345
▁prec	-3346
▁tetr	-3347
ecting	-3348
icient	-3349
iction	-3350
▁Block	-3351
▁Korea	-3352
▁asked	-3353
▁court	-3354
▁going	-3355
▁issue	-3356
▁teeth	-3357
▁tourn	-3358
▁trial	-3359
oration	-3360
▁Graves	-3361
▁Newman	-3362
▁choice	-3363
▁determ	-3364
▁double	-3365
▁econom	-3366
▁effort	-3367
▁extrat	-3368
▁method	-3369
▁nearly	-3370
▁regard	-3371
▁reveal	-3372
▁secret	-3373
▁states	-3374
▁weight	-3375
ectively	-3376
essional	-3377
restrial	-3378
▁Burnham	-3379
▁History	-3380
▁Ireland	-3381
▁Several	-3382
▁Through	-3383
▁billion	-3384
▁changes	-3385
▁claimed	-3386
▁conspir	-3387
▁eastern	-3388
▁mission	-3389
▁playing	-3390
▁portion	-3391
▁provide	-3392
▁reinfor	-3393
▁sources	-3394
▁accepted	-3395
▁becoming	-3396
▁declared	-3397
▁deployed	-3398
▁officers	-3399
▁recorded	-3400
▁tetrapod	-3401
▁Billboard	-3402
▁Wrestling	-3403
▁afternoon	-3404
▁necessary	-3405
▁southeast	-3406
▁consecutive	-3407
▁intensified	-3408
▁traditional	-3409
▁extratropical	-3410
sh	-3411
tr	-3412
▁+	-3413
▁-	-3414
eor	-3415
ida	-3416
mas	-3417
oll	-3418
rup	-3419
ume	-3420
usb	-3421
use	-3422
usp	-3423
uzz	-3424
val	-3425
xas	-3426
▁BC	-3427
▁Ca	-3428
▁Dv	-3429
▁NL	-3430
▁TA	-3431
▁Ta	-3432
▁Up	-3433
▁ox	-3434
ases	-3435
asty	-3436
hest	-3437
inth	-3438
itte	-3439
more	-3440
▁Art	-3441
▁Gal	-3442
▁Hen	-3443
▁Its	-3444
▁Lab	-3445
▁ens	-3446
▁ham	-3447
▁row	-3448
▁tra	-3449
▁voc	-3450
aries	-3451
aught	-3452
ching	-3453
iding	-3454
ilies	-3455
rogen	-3456
ufact	-3457
urity	-3458
▁Beth	-3459
▁Cour	-3460
▁Many	-3461
▁Tank	-3462
▁attr	-3463
▁goal	-3464
▁mort	-3465
▁room	-3466
▁runs	-3467
▁subt	-3468
idence	-3469
ivered	-3470
▁Final	-3471
▁Franc	-3472
▁Luzon	-3473
▁ahead	-3474
▁cloud	-3475
▁domin	-3476
▁films	-3477
▁invol	-3478
▁relig	-3479
▁thron	-3480
▁youth	-3481
idation	-3482
▁Dvorak	-3483
▁George	-3484
▁Robert	-3485
▁Series	-3486
▁Sports	-3487
▁coming	-3488
▁compan	-3489
▁higher	-3490
▁mostly	-3491
▁orders	-3492
▁points	-3493
▁speech	-3494
▁submar	-3495
▁trough	-3496
▁Command	-3497
▁Further	-3498
▁appears	-3499
▁college	-3500
▁concern	-3501
▁consist	-3502
▁hundred	-3503
▁opening	-3504
▁regular	-3505
▁variety	-3506
▁vessels	-3507
▁victory	-3508
▁Republic	-3509
▁armoured	-3510
▁carriers	-3511
▁constant	-3512
▁critical	-3513
▁forecast	-3514
▁projects	-3515
▁Coalition	-3516
▁battalion	-3517
▁delivered	-3518
▁memorials	-3519
▁personnel	-3520
▁resulting	-3521
▁situation	-3522
▁sometimes	-3523
▁barricades	-3524
▁designated	-3525
ba	-3526
ex	-3527
uk	-3528
▁°	-3529
anh	-3530
ett	-3531
ibr	-3532
ips	-3533
ira	-3534
oph	-3535
▁Er	-3536
▁Sw	-3537
edic	-3538
ilit	-3539
imet	-3540
ises	-3541
ixed	-3542
phas	-3543
rane	-3544
ston	-3545
thes	-3546
uild	-3547
usan	-3548
wide	-3549
wood	-3550
▁Dio	-3551
▁Don	-3552
▁Kou	-3553
▁Lou	-3554
▁Mas	-3555
▁Mel	-3556
▁Sub	-3557
▁Sur	-3558
▁Tai	-3559
▁VII	-3560
▁eas	-3561
▁gas	-3562
▁har	-3563
▁ice	-3564
▁lay	-3565
▁soc	-3566
▁via	-3567
anged	-3568
ittee	-3569
lying	-3570
miral	-3571
onial	-3572
onica	-3573
▁Kiss	-3574
▁Late	-3575
▁NCAA	-3576
▁Star	-3577
▁Tres	-3578
▁What	-3579
▁Writ	-3580
▁beat	-3581
▁leng	-3582
▁phot	-3583
▁uses	-3584
ellite	-3585
gether	-3586
ustler	-3587
▁Produ	-3588
▁Santa	-3589
▁Times	-3590
▁focus	-3591
▁minor	-3592
▁purch	-3593
▁sched	-3594
▁songs	-3595
▁vehic	-3596
▁Austro	-3597
▁Edward	-3598
▁Joseph	-3599
▁Taiwan	-3600
▁bodies	-3601
▁bridge	-3602
▁create	-3603
▁emphas	-3604
▁experi	-3605
▁flight	-3606
▁interp	-3607
▁league	-3608
▁oldest	-3609
▁penetr	-3610
▁poetic	-3611
▁remark	-3612
▁replac	-3613
▁sector	-3614
▁starts	-3615
▁waters	-3616
▁Academy	-3617
▁College	-3618
▁Jackson	-3619
▁ancient	-3620
▁changed	-3621
▁finally	-3622
▁highway	-3623
▁minutes	-3624
▁numbers	-3625
▁passing	-3626
▁reserve	-3627
▁seasons	-3628
▁turrets	-3629
▁wounded	-3630
▁Veronica	-3631
▁champion	-3632
▁continue	-3633
▁equipped	-3634
▁examples	-3635
▁families	-3636
▁referred	-3637
▁together	-3638
▁Christian	-3639
▁Christmas	-3640
▁architect	-3641
▁converted	-3642
▁wrestling	-3643
▁introduced	-3644
▁transition	-3645
▁constructed	-3646
▁terrestrial	-3647
▁Intelligence	-3648
▁relationship	-3649
IS	-3650
mb	-3651
ux	-3652
Mah	-3653
aza	-3654
irt	-3655
lor	-3656
ūga	-3657
▁Ak	-3658
▁CS	-3659
▁PE	-3660
▁ha	-3661
▁ut	-3662
ares	-3663
elop	-3664
iate	-3665
igen	-3666
lete	-3667
reme	-3668
rict	-3669
umed	-3670
vard	-3671
▁Act	-3672
▁Boy	-3673
▁Due	-3674
▁Est	-3675
▁Hay	-3676
▁Soc	-3677
▁Tem	-3678
▁Tra	-3679
▁ang	-3680
▁pet	-3681
▁ran	-3682
▁sol	-3683
▁tar	-3684
▁von	-3685
Mahon	-3686
ether	-3687
etric	-3688
imate	-3689
▁Conf	-3690
▁Each	-3691
▁Jenn	-3692
▁Marc	-3693
▁Only	-3694
▁Wash	-3695
▁ball	-3696
▁frog	-3697
▁grad	-3698
▁here	-3699
▁live	-3700
▁love	-3701
▁mill	-3702
▁park	-3703
▁rate	-3704
▁ring	-3705
▁vari	-3706
▁vers	-3707
▁wall	-3708
ceeded	-3709
itable	-3710
▁Akron	-3711
▁Album	-3712
▁Eliot	-3713
▁Hyūga	-3714
▁excav	-3715
▁fifth	-3716
▁freed	-3717
▁grave	-3718
▁knock	-3719
▁knots	-3720
▁mount	-3721
▁portr	-3722
▁rabbi	-3723
▁shape	-3724
▁treat	-3725
hysical	-3726
igenous	-3727
incipal	-3728
▁Rossen	-3729
▁Weevil	-3730
▁assemb	-3731
▁begins	-3732
▁broken	-3733
▁defend	-3734
▁disapp	-3735
▁fitted	-3736
▁guitar	-3737
▁impact	-3738
▁itself	-3739
▁legisl	-3740
▁narrow	-3741
▁places	-3742
▁really	-3743
▁rounds	-3744
▁Admiral	-3745
▁McMahon	-3746
▁adopted	-3747
▁briefly	-3748
▁effects	-3749
▁highest	-3750
▁percent	-3751
▁recover	-3752
▁schools	-3753
▁strateg	-3754
▁Flotilla	-3755
▁Victoria	-3756
▁audience	-3757
▁conflict	-3758
▁entirely	-3759
▁expected	-3760
▁independ	-3761
▁material	-3762
▁powerful	-3763
▁progress	-3764
▁sections	-3765
▁separate	-3766
▁Hungarian	-3767
▁interview	-3768
▁requested	-3769
▁something	-3770
▁tetrapods	-3771
▁Washington	-3772
▁casualties	-3773
▁experience	-3774
▁tournament	-3775
▁temnospondyl	-3776
JN	-3777
RD	-3778
gg	-3779
ls	-3780
áz	-3781
alo	-3782
err	-3783
ext	-3784
jan	-3785
ogs	-3786
umb	-3787
urt	-3788
▁Ev	-3789
▁Ku	-3790
▁aw	-3791
RDIS	-3792
airs	-3793
fect	-3794
icle	-3795
icus	-3796
ingu	-3797
like	-3798
nown	-3799
utuz	-3800
▁Ann	-3801
▁Cap	-3802
▁Hed	-3803
▁IJN	-3804
▁Jul	-3805
▁Mes	-3806
▁Mor	-3807
▁Sir	-3808
▁amm	-3809
▁don	-3810
▁env	-3811
▁gre	-3812
▁mer	-3813
▁mur	-3814
▁pow	-3815
▁sch	-3816
adium	-3817
antly	-3818
astra	-3819
asure	-3820
eated	-3821
iders	-3822
isers	-3823
leman	-3824
orida	-3825
ption	-3826
uster	-3827
▁Cass	-3828
▁Gall	-3829
▁Mart	-3830
▁News	-3831
▁Sout	-3832
▁acqu	-3833
▁hits	-3834
▁idea	-3835
▁inch	-3836
▁isol	-3837
▁lear	-3838
▁loan	-3839
▁word	-3840
▁zone	-3841
ancial	-3842
ership	-3843
utuzov	-3844
ázquez	-3845
▁Glass	-3846
▁Guard	-3847
▁Texas	-3848
▁Wales	-3849
▁alive	-3850
▁heart	-3851
▁inhab	-3852
▁makes	-3853
▁march	-3854
▁might	-3855
▁polic	-3856
▁revol	-3857
▁scale	-3858
▁stage	-3859
▁synag	-3860
▁value	-3861
espread	-3862
▁Canada	-3863
▁Indust	-3864
▁Marine	-3865
▁Meteor	-3866
▁TARDIS	-3867
▁Vastra	-3868
▁arrest	-3869
▁artist	-3870
▁copies	-3871
▁course	-3872
▁covers	-3873
▁deaths	-3874
▁health	-3875
▁hosted	-3876
▁relief	-3877
▁things	-3878
▁tracks	-3879
▁winner	-3880
▁Florida	-3881
▁Kutuzov	-3882
▁Snowmen	-3883
▁dropped	-3884
▁edition	-3885
▁element	-3886
▁evening	-3887
▁filters	-3888
▁heavily	-3889
▁initial	-3890
▁married	-3891
▁mention	-3892
▁officer	-3893
▁primary	-3894
▁produce	-3895
▁product	-3896
▁rapidly	-3897
▁refused	-3898
▁seconds	-3899
▁turning	-3900
struction	-3901
▁Filipino	-3902
▁apparent	-3903
▁coaching	-3904
▁earliest	-3905
▁eastward	-3906
▁executed	-3907
▁hospital	-3908
▁investig	-3909
▁planning	-3910
▁shooting	-3911
▁Velázquez	-3912
▁extensive	-3913
▁historian	-3914
▁offensive	-3915
▁political	-3916
▁transform	-3917
▁Republican	-3918
▁completely	-3919
▁conference	-3920
▁protection	-3921
▁introduction	-3922
NG	-3923
hd	-3924
alt	-3925
aph	-3926
eny	-3927
isf	-3928
mes	-3929
raz	-3930
rov	-3931
ses	-3932
set	-3933
▁AA	-3934
▁Of	-3935
▁Zr	-3936
▁ni	-3937
Down	-3938
back	-3939
eled	-3940
greg	-3941
ille	-3942
ires	-3943
oper	-3944
ores	-3945
ruit	-3946
soon	-3947
tion	-3948
unte	-3949
▁Ald	-3950
▁Bec	-3951
▁Bhd	-3952
▁Dup	-3953
▁Gro	-3954
▁Loc	-3955
▁Low	-3956
▁McC	-3957
▁Not	-3958
▁Out	-3959
▁Piz	-3960
▁Tay	-3961
▁asp	-3962
▁avo	-3963
▁big	-3964
▁nit	-3965
▁pin	-3966
▁sev	-3967
▁sil	-3968
▁sum	-3969
aging	-3970
claim	-3971
cript	-3972
iddle	-3973
leton	-3974
stead	-3975
ulner	-3976
▁Buff	-3977
▁Bulg	-3978
▁Camb	-3979
▁Cong	-3980
▁Crit	-3981
▁Rich	-3982
▁bott	-3983
▁cold	-3984
▁educ	-3985
▁flow	-3986
▁food	-3987
▁grew	-3988
▁lies	-3989
▁navy	-3990
▁purs	-3991
▁rose	-3992
▁unar	-3993
▁wear	-3994
ellion	-3995
ifying	-3996
▁Anton	-3997
▁Catal	-3998
▁Fland	-3999
▁Henry	-4000
▁Holly	-4001
▁Italy	-4002
▁Jenny	-4003
▁Light	-4004
▁Offic	-4005
▁Parth	-4006
▁Pusan	-4007
▁Short	-4008
▁Smack	-4009
▁Strax	-4010
▁badly	-4011
▁board	-4012
▁dense	-4013
▁enter	-4014
▁hands	-4015
▁raids	-4016
▁sixth	-4017
▁types	-4018
▁Brooke	-4019
▁Direct	-4020
▁Lieber	-4021
▁Prince	-4022
▁Taylor	-4023
▁actors	-4024
▁altern	-4025
▁beauty	-4026
▁breech	-4027
▁closed	-4028
▁filmed	-4029
▁finals	-4030
▁helped	-4031
▁images	-4032
▁landed	-4033
▁length	-4034
▁opened	-4035
▁prepar	-4036
▁raised	-4037
▁widely	-4038
idential	-4039
visional	-4040
▁Buffalo	-4041
▁Cassius	-4042
▁Coleman	-4043
▁Western	-4044
▁advance	-4045
▁aquatic	-4046
▁article	-4047
▁assault	-4048
▁certain	-4049
▁deliver	-4050
▁display	-4051
▁dynasty	-4052
▁forcing	-4053
▁largely	-4054
▁medical	-4055
▁monsoon	-4056
▁natural	-4057
▁possess	-4058
▁private	-4059
▁records	-4060
▁respond	-4061
▁serious	-4062
▁starred	-4063
▁stating	-4064
▁synthes	-4065
▁Croatian	-4066
▁Flanders	-4067
▁Olympics	-4068
▁activity	-4069
▁armament	-4070
▁compared	-4071
▁distance	-4072
▁district	-4073
▁governor	-4074
▁greatest	-4075
▁occurred	-4076
▁proposed	-4077
▁retained	-4078
▁sculpted	-4079
▁services	-4080
▁westward	-4081
▁withdraw	-4082
nospondyli	-4083
▁SmackDown	-4084
▁advantage	-4085
▁attacking	-4086
▁civilians	-4087
▁decorated	-4088
▁defensive	-4089
▁evacuated	-4090
▁monuments	-4091
▁nominated	-4092
▁squadrons	-4093
▁suggested	-4094
▁synagogue	-4095
▁developing	-4096
▁headstones	-4097
▁identified	-4098
▁maintained	-4099
▁relatively	-4100
▁widespread	-4101
▁Provisional	-4102
▁intersection	-4103
▁organization	-4104
▁subsequently	-4105
▁Temnospondyli	-4106
▁reconnaissance	-4107
LB	-4108
de	-4109
dn	-4110
ee	-4111
ka	-4112
wh	-4113
ía	-4114
aby	-4115
ama	-4116
ano	-4117
cer	-4118
ify	-4119
lin	-4120
olf	-4121
omm	-4122
uct	-4123
urs	-4124
▁Cy	-4125
▁Je	-4126
▁Ma	-4127
▁Ul	-4128
▁Vi	-4129
anes	-4130
arsh	-4131
avia	-4132
ayer	-4133
enef	-4134
enna	-4135
gypt	-4136
mian	-4137
mosp	-4138
obal	-4139
play	-4140
rees	-4141
resh	-4142
rian	-4143
rier	-4144
rowd	-4145
▁Are	-4146
▁Bin	-4147
▁Des	-4148
▁Gre	-4149
▁Ham	-4150
▁Hor	-4151
▁Kin	-4152
▁MLB	-4153
▁Pas	-4154
▁Rum	-4155
▁Sat	-4156
▁Sdn	-4157
▁USD	-4158
▁Wes	-4159
▁amb	-4160
▁bat	-4161
▁ess	-4162
▁mel	-4163
▁net	-4164
▁ple	-4165
▁why	-4166
antic	-4167
erved	-4168
imens	-4169
inson	-4170
iplom	-4171
night	-4172
order	-4173
quare	-4174
rance	-4175
ridge	-4176
unity	-4177
urban	-4178
while	-4179
▁Alex	-4180
▁Coun	-4181
▁Just	-4182
▁Mary	-4183
▁Miri	-4184
▁View	-4185
▁cred	-4186
▁drum	-4187
▁elev	-4188
▁fail	-4189
▁fant	-4190
▁flat	-4191
▁fuel	-4192
▁gust	-4193
▁jour	-4194
▁note	-4195
▁prem	-4196
▁rail	-4197
▁sens	-4198
▁tact	-4199
▁thir	-4200
▁wins	-4201
atched	-4202
ibrary	-4203
idding	-4204
istics	-4205
itants	-4206
nesota	-4207
▁Among	-4208
▁Bulge	-4209
▁Court	-4210
▁Earth	-4211
▁Egypt	-4212
▁Fight	-4213
▁Frank	-4214
▁Music	-4215
▁Smith	-4216
▁Somal	-4217
▁Tondo	-4218
▁activ	-4219
▁celeb	-4220
▁draft	-4221
▁earth	-4222
▁grand	-4223
▁hulls	-4224
▁moder	-4225
▁parts	-4226
▁quest	-4227
▁roads	-4228
▁speak	-4229
▁theme	-4230
▁trade	-4231
▁tried	-4232
▁whole	-4233
▁women	-4234
artment	-4235
ontolog	-4236
osition	-4237
stitute	-4238
▁Temple	-4239
▁Thomas	-4240
▁Vienna	-4241
▁claims	-4242
▁consul	-4243
▁favour	-4244
▁firing	-4245
▁headed	-4246
▁leaves	-4247
▁pieces	-4248
▁recent	-4249
▁senior	-4250
▁shells	-4251
▁throne	-4252
▁transl	-4253
▁Because	-4254
▁Hustler	-4255
▁Permian	-4256
▁Richard	-4257
▁Warrior	-4258
▁coastal	-4259
▁congreg	-4260
▁designs	-4261
▁divided	-4262
▁elected	-4263
▁focused	-4264
▁neither	-4265
▁reduced	-4266
▁student	-4267
▁theater	-4268
▁Ironclad	-4269
▁Malaysia	-4270
▁actually	-4271
▁advanced	-4272
▁attempts	-4273
▁communic	-4274
▁distingu	-4275
▁interior	-4276
▁manufact	-4277
▁numerous	-4278
▁reaching	-4279
▁sequence	-4280
▁specific	-4281
▁starting	-4282
▁superior	-4283
▁Americans	-4284
▁Minnesota	-4285
▁alongside	-4286
▁consisted	-4287
▁countries	-4288
▁financial	-4289
▁returning	-4290
▁southward	-4291
▁successor	-4292
▁unsuccess	-4293
▁worldwide	-4294
▁Federalist	-4295
▁conspiracy	-4296
ministration	-4297
▁experienced	-4298
▁information	-4299
▁inhabitants	-4300
▁considerable	-4301
▁professional	-4302
▁respectively	-4303
Hg	-4304
UC	-4305
awa	-4306
bar	-4307
bed	-4308
een	-4309
emi	-4310
iag	-4311
ims	-4312
isp	-4313
joy	-4314
oni	-4315
oty	-4316
sis	-4317
udo	-4318
unn	-4319
▁AD	-4320
▁Lo	-4321
▁cm	-4322
▁vo	-4323
▁wa	-4324
aces	-4325
enty	-4326
etor	-4327
etry	-4328
fire	-4329
ibly	-4330
izes	-4331
leet	-4332
mark	-4333
mbol	-4334
oney	-4335
osis	-4336
unar	-4337
writ	-4338
▁Add	-4339
▁Bol	-4340
▁Cra	-4341
▁Def	-4342
▁Eug	-4343
▁God	-4344
▁How	-4345
▁Luc	-4346
▁Sam	-4347
▁Sov	-4348
▁Str	-4349
▁Tit	-4350
▁Var	-4351
▁boy	-4352
▁cat	-4353
▁cer	-4354
▁dig	-4355
▁imm	-4356
▁inn	-4357
▁lik	-4358
▁pap	-4359
▁ram	-4360
▁suc	-4361
▁tip	-4362
▁unf	-4363
▁unk	-4364
▁wor	-4365
iling	-4366
inces	-4367
inity	-4368
inski	-4369
ishes	-4370
ldogs	-4371
ogram	-4372
oring	-4373
rents	-4374
uries	-4375
uzzle	-4376
▁Cena	-4377
▁Fore	-4378
▁Home	-4379
▁Hong	-4380
▁Kong	-4381
▁Like	-4382
▁Sime	-4383
▁Stud	-4384
▁boat	-4385
▁club	-4386
▁inHg	-4387
▁mast	-4388
▁norm	-4389
▁onto	-4390
▁purp	-4391
▁remn	-4392
▁roof	-4393
▁susp	-4394
▁want	-4395
▁whom	-4396
▁your	-4397
avalry	-4398
enesis	-4399
ewhere	-4400
opping	-4401
ranean	-4402
uching	-4403
vement	-4404
▁Coast	-4405
▁Cross	-4406
▁Greek	-4407
▁Naval	-4408
▁Their	-4409
▁airst	-4410
▁benef	-4411
▁chair	-4412
▁crowd	-4413
▁dream	-4414
▁enjoy	-4415
▁equip	-4416
▁fresh	-4417
▁minim	-4418
▁negot	-4419
▁older	-4420
▁owned	-4421
▁react	-4422
▁rough	-4423
▁throw	-4424
iferous	-4425
lection	-4426
unition	-4427
▁Archit	-4428
▁Before	-4429
▁Cooper	-4430
▁Histor	-4431
▁Rumble	-4432
▁Soviet	-4433
▁Torres	-4434
▁Trajan	-4435
▁Valent	-4436
▁accept	-4437
▁ancest	-4438
▁archae	-4439
▁argues	-4440
▁buried	-4441
▁chosen	-4442
▁destru	-4443
▁diplom	-4444
▁earned	-4445
▁hamlet	-4446
▁launch	-4447
▁muzzle	-4448
▁scream	-4449
▁showed	-4450
▁sister	-4451
▁spread	-4452
▁struct	-4453
▁vulner	-4454
elopment	-4455
▁Matthew	-4456
▁Zrinski	-4457
▁airport	-4458
▁animals	-4459
▁capable	-4460
▁conduct	-4461
▁defined	-4462
▁environ	-4463
▁greater	-4464
▁injured	-4465
▁loading	-4466
▁problem	-4467
▁regions	-4468
▁showing	-4469
▁sisters	-4470
▁studies	-4471
▁univers	-4472
▁volunte	-4473
▁warning	-4474
▁Bulldogs	-4475
▁attached	-4476
▁colonial	-4477
▁existing	-4478
▁extended	-4479
▁imperial	-4480
▁multiple	-4481
▁practice	-4482
▁survived	-4483
▁Aldington	-4484
▁Committee	-4485
▁Direction	-4486
▁Perimeter	-4487
▁attention	-4488
▁challenge	-4489
▁condition	-4490
▁paintings	-4491
▁primarily	-4492
▁religious	-4493
▁satellite	-4494
▁southwest	-4495
▁Development	-4496
▁Furthermore	-4497
▁represented	-4498
▁Meteorological	-4499
hr	-4500
ym	-4501
án	-4502
▁#	-4503
ads	-4504
ael	-4505
aws	-4506
eca	-4507
ega	-4508
fax	-4509
ias	-4510
iff	-4511
ift	-4512
iny	-4513
ios	-4514
irm	-4515
ria	-4516
uge	-4517
urg	-4518
▁Cr	-4519
▁Ir	-4520
▁Ow	-4521
acts	-4522
aith	-4523
ante	-4524
apes	-4525
budo	-4526
helm	-4527
hood	-4528
ichy	-4529
idel	-4530
ider	-4531
igns	-4532
iled	-4533
imin	-4534
jira	-4535
ogan	-4536
onel	-4537
onse	-4538
pass	-4539
rait	-4540
then	-4541
ults	-4542
uses	-4543
yond	-4544
▁App	-4545
▁Bay	-4546
▁Cle	-4547
▁Mos	-4548
▁Mur	-4549
▁Qui	-4550
▁RUC	-4551
▁Sal	-4552
▁Tan	-4553
▁Ulm	-4554
▁cho	-4555
▁fit	-4556
▁lyr	-4557
▁mom	-4558
▁our	-4559
▁pun	-4560
▁tim	-4561
apped	-4562
eless	-4563
ening	-4564
erson	-4565
heric	-4566
ighth	-4567
irmed	-4568
itude	-4569
orter	-4570
ushed	-4571
vious	-4572
▁Agok	-4573
▁Also	-4574
▁Belg	-4575
▁Carl	-4576
▁Chan	-4577
▁Cont	-4578
▁Even	-4579
▁Gulf	-4580
▁Part	-4581
▁Sing	-4582
▁Viet	-4583
▁burn	-4584
▁epox	-4585
▁fill	-4586
▁fold	-4587
▁foss	-4588
▁hang	-4589
▁link	-4590
▁myst	-4591
▁nose	-4592
▁paid	-4593
▁pict	-4594
▁rise	-4595
▁shut	-4596
▁stem	-4597
▁tonn	-4598
ansion	-4599
bishop	-4600
iences	-4601
ograph	-4602
perors	-4603
ternal	-4604
▁Chief	-4605
▁Coach	-4606
▁Craig	-4607
▁Galba	-4608
▁Hamil	-4609
▁House	-4610
▁Louis	-4611
▁Maemi	-4612
▁Ocean	-4613
▁Vichy	-4614
▁White	-4615
▁begun	-4616
▁camer	-4617
▁cases	-4618
▁dated	-4619
▁doing	-4620
▁ferry	-4621
▁finds	-4622
▁gives	-4623
▁guard	-4624
▁horse	-4625
▁lived	-4626
▁lives	-4627
▁means	-4628
▁metal	-4629
▁notes	-4630
▁oppon	-4631
▁rival	-4632
▁schol	-4633
▁sense	-4634
▁shows	-4635
▁split	-4636
▁stret	-4637
▁takes	-4638
▁tells	-4639
▁trees	-4640
▁verse	-4641
▁views	-4642
▁visit	-4643
tenance	-4644
theless	-4645
thletic	-4646
▁Agency	-4647
▁Allied	-4648
▁Bening	-4649
▁Carbon	-4650
▁Dupont	-4651
▁Eugene	-4652
▁Imbudo	-4653
▁Koufax	-4654
▁Kujira	-4655
▁Marcus	-4656
▁Seneca	-4657
▁Simeon	-4658
▁Wander	-4659
▁Within	-4660
▁access	-4661
▁accomp	-4662
▁attend	-4663
▁beyond	-4664
▁caught	-4665
▁cities	-4666
▁couple	-4667
▁degree	-4668
▁giving	-4669
▁injury	-4670
▁nature	-4671
▁nearby	-4672
▁partly	-4673
▁reason	-4674
▁resemb	-4675
▁resist	-4676
▁sexual	-4677
▁source	-4678
▁stages	-4679
▁summer	-4680
▁trials	-4681
▁underw	-4682
standing	-4683
▁African	-4684
▁Binondo	-4685
▁Britann	-4686
▁Cemeter	-4687
▁Council	-4688
▁Defence	-4689
▁Kuching	-4690
▁Mediter	-4691
▁Octavia	-4692
▁ability	-4693
▁awarded	-4694
▁becomes	-4695
▁closely	-4696
▁concent	-4697
▁debuted	-4698
▁degrees	-4699
▁deliber	-4700
▁earthqu	-4701
▁exposed	-4702
▁figures	-4703
▁filming	-4704
▁imagery	-4705
▁killing	-4706
▁offices	-4707
▁prepare	-4708
▁reflect	-4709
▁replica	-4710
▁returns	-4711
▁unknown	-4712
sequently	-4713
▁Addition	-4714
▁Airborne	-4715
▁Christop	-4716
▁European	-4717
▁Glassman	-4718
▁Governor	-4719
▁Russians	-4720
▁Services	-4721
▁affected	-4722
▁contains	-4723
▁creating	-4724
▁cruisers	-4725
▁directly	-4726
▁includes	-4727
▁industry	-4728
▁monitors	-4729
▁reinforc	-4730
▁remnants	-4731
▁response	-4732
▁security	-4733
▁strongly	-4734
▁vehicles	-4735
▁withdrew	-4736
▁assistant	-4737
▁batteries	-4738
▁broadside	-4739
▁companies	-4740
▁confirmed	-4741
▁direction	-4742
▁equipment	-4743
▁explosive	-4744
▁favorable	-4745
▁mountains	-4746
▁organized	-4747
▁prevented	-4748
▁Government	-4749
▁ammunition	-4750
▁commentary	-4751
▁commercial	-4752
▁indicating	-4753
▁kilometres	-4754
▁subsequent	-4755
▁competition	-4756
▁dissipating	-4757
▁maintenance	-4758
▁residential	-4759
▁participated	-4760
▁performances	-4761
▁successfully	-4762
▁Carboniferous	-4763
▁Mediterranean	-4764
FL	-4765
VD	-4766
oi	-4767
WGP	-4768
atr	-4769
cle	-4770
eum	-4771
▁CD	-4772
▁IG	-4773
▁If	-4774
▁Ne	-4775
▁Sl	-4776
▁UK	-4777
ager	-4778
cles	-4779
endo	-4780
eper	-4781
ergy	-4782
inas	-4783
jung	-4784
ooth	-4785
oted	-4786
rast	-4787
resp	-4788
thur	-4789
uilt	-4790
uled	-4791
uous	-4792
▁Bah	-4793
▁Bob	-4794
▁Cup	-4795
▁DVD	-4796
▁Lin	-4797
▁Mag	-4798
▁Mod	-4799
▁NFL	-4800
▁Ret	-4801
▁Rom	-4802
▁Ser	-4803
▁Ter	-4804
▁Wal	-4805
▁Wil	-4806
▁adm	-4807
▁gir	-4808
▁jud	-4809
▁mis	-4810
▁mob	-4811
acity	-4812
ading	-4813
arely	-4814
arter	-4815
asian	-4816
astod	-4817
aurus	-4818
eding	-4819
elves	-4820
going	-4821
icago	-4822
ister	-4823
reets	-4824
ville	-4825
xture	-4826
▁Dick	-4827
▁Fast	-4828
▁Foot	-4829
▁IWGP	-4830
▁Mack	-4831
▁Main	-4832
▁Mean	-4833
▁Pict	-4834
▁VIII	-4835
▁Vesp	-4836
▁Wind	-4837
▁Zeal	-4838
▁anth	-4839
▁crop	-4840
▁done	-4841
▁ears	-4842
▁frig	-4843
▁gold	-4844
▁indu	-4845
▁knew	-4846
▁ment	-4847
▁mind	-4848
▁mine	-4849
▁news	-4850
▁plot	-4851
▁resc	-4852
▁sole	-4853
▁styl	-4854
▁thus	-4855
▁tied	-4856
▁trib	-4857
▁unus	-4858
▁util	-4859
▁virt	-4860
encies	-4861
family	-4862
imetre	-4863
ología	-4864
rastru	-4865
utions	-4866
▁Beach	-4867
▁Broad	-4868
▁Field	-4869
▁Fleet	-4870
▁Group	-4871
▁Irish	-4872
▁Metro	-4873
▁Sarah	-4874
▁Staff	-4875
▁Track	-4876
▁Trans	-4877
▁blood	-4878
▁drawn	-4879
▁exerc	-4880
▁floor	-4881
▁hills	-4882
▁ideas	-4883
▁instr	-4884
▁mixed	-4885
▁motif	-4886
▁newly	-4887
▁plans	-4888
▁plays	-4889
▁semia	-4890
▁space	-4891
▁surre	-4892
claimed	-4893
clusion	-4894
formula	-4895
istered	-4896
sewhere	-4897
▁Andrew	-4898
▁Antrop	-4899
▁Carwin	-4900
▁Lowell	-4901
▁Mastod	-4902
▁Middle	-4903
▁Modern	-4904
▁Russia	-4905
▁carved	-4906
▁cheeks	-4907
▁facing	-4908
▁fantas	-4909
▁forest	-4910
▁instru	-4911
▁losses	-4912
▁lyrics	-4913
▁museum	-4914
▁picked	-4915
▁plates	-4916
▁shaped	-4917
▁skulls	-4918
▁slowly	-4919
▁stands	-4920
▁territ	-4921
▁themes	-4922
▁titled	-4923
▁weighs	-4924
heastern	-4925
▁Chicago	-4926
▁Eastern	-4927
▁Gallery	-4928
▁Gidding	-4929
▁Horizon	-4930
▁Instead	-4931
▁Stadium	-4932
▁Tanjung	-4933
▁Theatre	-4934
▁Vietnam	-4935
▁Zealand	-4936
▁battery	-4937
▁bombing	-4938
▁calling	-4939
▁concept	-4940
▁connect	-4941
▁context	-4942
▁decades	-4943
▁dispers	-4944
▁engaged	-4945
▁engines	-4946
▁erected	-4947
▁extreme	-4948
▁foreign	-4949
▁friends	-4950
▁hearing	-4951
▁managed	-4952
▁missing	-4953
▁mounted	-4954
▁protest	-4955
▁related	-4956
▁reports	-4957
▁retired	-4958
▁running	-4959
▁streets	-4960
▁terrain	-4961
▁weather	-4962
mospheric	-4963
▁Burnhams	-4964
▁Director	-4965
▁Football	-4966
▁Imagists	-4967
▁anything	-4968
▁capacity	-4969
▁covering	-4970
▁election	-4971
▁entering	-4972
▁finalist	-4973
▁isolated	-4974
▁nitrogen	-4975
▁possibly	-4976
▁question	-4977
▁standard	-4978
▁suggests	-4979
aleontolog	-4980
▁Meanwhile	-4981
▁Vespasian	-4982
▁discovery	-4983
▁divisions	-4984
▁formation	-4985
▁potential	-4986
▁rebellion	-4987
▁receiving	-4988
▁recovered	-4989
▁responded	-4990
▁secondary	-4991
▁Department	-4992
▁advisories	-4993
▁background	-4994
▁criticized	-4995
▁determined	-4996
▁engagement	-4997
▁exhibition	-4998
▁industrial	-4999
▁officially	-5000
▁recognized	-5001
▁submarines	-5002
▁destruction	-5003
▁preparation	-5004
▁semiaquatic	-5005
▁temperature	-5006
▁Antropología	-5007
▁commissioned	-5008
▁congregation	-5009
AF	-5010
BA	-5011
BC	-5012
NA	-5013
be	-5014
pa	-5015
ze	-5016
▁?	-5017
▁₱	-5018
AAF	-5019
ban	-5020
ems	-5021
hem	-5022
kin	-5023
obe	-5024
och	-5025
rel	-5026
rid	-5027
ruz	-5028
tho	-5029
▁Et	-5030
▁Go	-5031
▁Lu	-5032
▁MT	-5033
▁NJ	-5034
▁Si	-5035
▁So	-5036
▁pa	-5037
Slam	-5038
aily	-5039
aint	-5040
amor	-5041
atus	-5042
come	-5043
elch	-5044
ette	-5045
gend	-5046
inem	-5047
isis	-5048
itan	-5049
lock	-5050
olic	-5051
omes	-5052
onia	-5053
oons	-5054
pled	-5055
room	-5056
rove	-5057
ucle	-5058
unic	-5059
xual	-5060
▁Ast	-5061
▁Ber	-5062
▁Bud	-5063
▁CSS	-5064
▁Ill	-5065
▁Nor	-5066
▁Pra	-5067
▁Who	-5068
▁box	-5069
▁enl	-5070
▁lat	-5071
▁los	-5072
▁loy	-5073
▁nav	-5074
▁nor	-5075
▁pan	-5076
▁rum	-5077
abled	-5078
ashes	-5079
astic	-5080
atory	-5081
awned	-5082
ecess	-5083
ining	-5084
istry	-5085
izing	-5086
lands	-5087
offat	-5088
onstr	-5089
ricts	-5090
ropri	-5091
ships	-5092
usion	-5093
▁Caes	-5094
▁Comb	-5095
▁Come	-5096
▁Cons	-5097
▁Corn	-5098
▁Down	-5099
▁Duke	-5100
▁Hugh	-5101
▁Otho	-5102
▁Pers	-5103
▁RAAF	-5104
▁Task	-5105
▁Time	-5106
▁Walk	-5107
▁Wood	-5108
▁barb	-5109
▁calm	-5110
▁clim	-5111
▁dism	-5112
▁ends	-5113
▁fans	-5114
▁fear	-5115
▁feet	-5116
▁feud	-5117
▁flag	-5118
▁male	-5119
▁neck	-5120
▁rang	-5121
▁seat	-5122
▁snow	-5123
▁ways	-5124
ancing	-5125
ipping	-5126
▁Front	-5127
▁Logan	-5128
▁Lower	-5129
▁Peter	-5130
▁Scott	-5131
▁Shack	-5132
▁accur	-5133
▁antic	-5134
▁bombs	-5135
▁creat	-5136
▁diver	-5137
▁drove	-5138
▁frogs	-5139
▁movie	-5140
▁neigh	-5141
▁occas	-5142
▁plain	-5143
▁recon	-5144
▁shown	-5145
▁sites	-5146
▁squad	-5147
▁stars	-5148
▁stood	-5149
▁thing	-5150
▁today	-5151
▁twice	-5152
▁voice	-5153
▁worst	-5154
isputed	-5155
respond	-5156
▁Albums	-5157
▁Moffat	-5158
▁System	-5159
▁Yorker	-5160
▁awards	-5161
▁barang	-5162
▁behalf	-5163
▁belief	-5164
▁blocks	-5165
▁bottom	-5166
▁cannot	-5167
▁closer	-5168
▁crisis	-5169
▁estate	-5170
▁flying	-5171
▁fought	-5172
▁genera	-5173
▁incorp	-5174
▁intent	-5175
▁levels	-5176
▁manner	-5177
▁mortar	-5178
▁overse	-5179
▁plants	-5180
▁prison	-5181
▁proved	-5182
▁revolt	-5183
▁rulers	-5184
▁secure	-5185
▁serves	-5186
▁symbol	-5187
▁tonnes	-5188
▁triple	-5189
▁twenty	-5190
▁viewed	-5191
▁visual	-5192
▁writes	-5193
onsaurus	-5194
▁Hungary	-5195
▁Records	-5196
▁Service	-5197
▁Shortly	-5198
▁Special	-5199
▁Writing	-5200
▁account	-5201
▁actions	-5202
▁arrival	-5203
▁artists	-5204
▁aspects	-5205
▁batters	-5206
▁capture	-5207
▁causing	-5208
▁cavalry	-5209
▁charges	-5210
▁clearly	-5211
▁collaps	-5212
▁contain	-5213
▁culture	-5214
▁details	-5215
▁granted	-5216
▁journey	-5217
▁looking	-5218
▁matches	-5219
▁meaning	-5220
▁passage	-5221
▁patrols	-5222
▁promote	-5223
▁propell	-5224
▁quality	-5225
▁reviews	-5226
▁spawned	-5227
▁stopped	-5228
▁visited	-5229
▁whether	-5230
▁younger	-5231
▁Armoured	-5232
▁Augustus	-5233
▁Campaign	-5234
▁Cemetery	-5235
▁Confeder	-5236
▁Congress	-5237
▁accident	-5238
▁airfield	-5239
▁assisted	-5240
▁attended	-5241
▁darkness	-5242
▁demonstr	-5243
▁departed	-5244
▁economic	-5245
▁electron	-5246
▁evidence	-5247
▁expanded	-5248
▁junction	-5249
▁maintain	-5250
▁occupied	-5251
▁platform	-5252
▁promoted	-5253
▁regarded	-5254
▁shopping	-5255
▁versions	-5256
▁violence	-5257
ifications	-5258
▁certified	-5259
▁commanded	-5260
▁connected	-5261
▁continues	-5262
▁education	-5263
▁effective	-5264
▁generated	-5265
▁headstone	-5266
▁infrastru	-5267
▁monitored	-5268
▁persisted	-5269
▁president	-5270
▁scheduled	-5271
▁sculpture	-5272
▁therefore	-5273
▁treatment	-5274
▁Background	-5275
▁Production	-5276
▁Revolution	-5277
▁Shackleton	-5278
▁SummerSlam	-5279
▁Undisputed	-5280
▁continuing	-5281
▁correspond	-5282
▁dissipated	-5283
▁frequently	-5284
▁kilometers	-5285
▁suggesting	-5286
▁Christopher	-5287
▁epoxidation	-5288
▁individuals	-5289
▁nationalist	-5290
▁replacement	-5291
▁surrounding	-5292
▁increasingly	-5293
▁intelligence	-5294
▁establishment	-5295
▁Mastodonsaurus	-5296
▁responsibility	-5297
▁transportation	-5298
▁characteristics	-5299
dy	-5300
eu	-5301
ić	-5302
na	-5303
rv	-5304
ya	-5305
yo	-5306
acr	-5307
apa	-5308
asc	-5309
azi	-5310
erl	-5311
ewh	-5312
irg	-5313
irr	-5314
isk	-5315
zon	-5316
▁IV	-5317
▁Mk	-5318
▁Ob	-5319
▁ca	-5320
▁gh	-5321
▁sn	-5322
▁wr	-5323
ajah	-5324
alle	-5325
atem	-5326
bell	-5327
body	-5328
eals	-5329
eget	-5330
elve	-5331
haps	-5332
hold	-5333
ibre	-5334
icas	-5335
inet	-5336
inus	-5337
irit	-5338
irth	-5339
ites	-5340
itiz	-5341
lder	-5342
oute	-5343
rems	-5344
rich	-5345
rose	-5346
uart	-5347
well	-5348
xton	-5349
yang	-5350
yard	-5351
ylog	-5352
▁Cur	-5353
▁Det	-5354
▁Hon	-5355
▁Jud	-5356
▁LNG	-5357
▁Law	-5358
▁MMA	-5359
▁Mac	-5360
▁Mid	-5361
▁Old	-5362
▁RAF	-5363
▁Res	-5364
▁Sev	-5365
▁Six	-5366
▁Ten	-5367
▁Vik	-5368
▁Win	-5369
▁bit	-5370
▁ble	-5371
▁cul	-5372
▁enh	-5373
▁gay	-5374
▁nov	-5375
▁obt	-5376
▁rif	-5377
▁rom	-5378
▁sab	-5379
▁try	-5380
▁uns	-5381
▁vic	-5382
▁wit	-5383
alapa	-5384
andid	-5385
atson	-5386
attan	-5387
echan	-5388
ewhat	-5389
hilos	-5390
iance	-5391
idges	-5392
iliar	-5393
ivals	-5394
ledge	-5395
oking	-5396
osion	-5397
otype	-5398
ounts	-5399
rence	-5400
ropol	-5401
rvats	-5402
spect	-5403
track	-5404
udden	-5405
umber	-5406
unday	-5407
uting	-5408
▁Area	-5409
▁Call	-5410
▁Cath	-5411
▁Choi	-5412
▁Coll	-5413
▁Hard	-5414
▁Jews	-5415
▁Kurt	-5416
▁Merc	-5417
▁Meso	-5418
▁More	-5419
▁Owen	-5420
▁Roll	-5421
▁Stir	-5422
▁Surv	-5423
▁Team	-5424
▁Vick	-5425
▁arts	-5426
▁bulk	-5427
▁cool	-5428
▁dram	-5429
▁easy	-5430
▁emot	-5431
▁husb	-5432
▁jung	-5433
▁kept	-5434
▁must	-5435
▁outf	-5436
▁path	-5437
▁rept	-5438
▁sees	-5439
▁send	-5440
▁spot	-5441
▁suic	-5442
▁sunk	-5443
▁text	-5444
▁turb	-5445
▁vary	-5446
▁vent	-5447
amming	-5448
atemal	-5449
buster	-5450
erlitz	-5451
iments	-5452
ocaust	-5453
ricult	-5454
rovers	-5455
selves	-5456
stream	-5457
yrinth	-5458
▁Break	-5459
▁Charl	-5460
▁Chris	-5461
▁Crist	-5462
▁Flint	-5463
▁Georg	-5464
▁Gomes	-5465
▁Grand	-5466
▁India	-5467
▁Krems	-5468
▁Marsh	-5469
▁Parma	-5470
▁Press	-5471
▁Route	-5472
▁Shell	-5473
▁Simil	-5474
▁Tracy	-5475
▁alone	-5476
▁bound	-5477
▁carry	-5478
▁chief	-5479
▁chose	-5480
▁corps	-5481
▁faith	-5482
▁ghost	-5483
▁gills	-5484
▁guest	-5485
▁label	-5486
▁lunar	-5487
▁money	-5488
▁ocean	-5489
▁plate	-5490
▁share	-5491
▁stern	-5492
▁table	-5493
▁thous	-5494
▁touch	-5495
▁turns	-5496
▁undef	-5497
▁veget	-5498
▁walks	-5499
▁walls	-5500
▁white	-5501
▁worth	-5502
▁yards	-5503
elchair	-5504
estival	-5505
estrian	-5506
ossible	-5507
ributed	-5508
▁Austin	-5509
▁Author	-5510
▁Poetry	-5511
▁Quezon	-5512
▁Shield	-5513
▁Sunday	-5514
▁Though	-5515
▁Walker	-5516
▁Warren	-5517
▁Watson	-5518
▁annual	-5519
▁athlet	-5520
▁camera	-5521
▁candid	-5522
▁compar	-5523
▁depict	-5524
▁energy	-5525
▁escape	-5526
▁excell	-5527
▁exclus	-5528
▁garden	-5529
▁growth	-5530
▁height	-5531
▁honors	-5532
▁landsc	-5533
▁master	-5534
▁mounts	-5535
▁murder	-5536
▁navies	-5537
▁opport	-5538
▁palace	-5539
▁philos	-5540
▁policy	-5541
▁recomm	-5542
▁refers	-5543
▁rework	-5544
▁seemed	-5545
▁select	-5546
▁shared	-5547
▁simple	-5548
▁smooth	-5549
▁social	-5550
▁tempor	-5551
▁termin	-5552
▁window	-5553
▁writer	-5554
entional	-5555
ressions	-5556
▁Claxton	-5557
▁Complex	-5558
▁Francis	-5559
▁Kinberg	-5560
▁Michael	-5561
▁Nations	-5562
▁Portage	-5563
▁Praetor	-5564
▁Society	-5565
▁accompl	-5566
▁anticip	-5567
▁constit	-5568
▁contact	-5569
▁council	-5570
▁derived	-5571
▁efforts	-5572
▁evolved	-5573
▁feeling	-5574
▁flowers	-5575
▁fossils	-5576
▁getting	-5577
▁horizon	-5578
▁husband	-5579
▁library	-5580
▁mixture	-5581
▁monitor	-5582
▁network	-5583
▁operate	-5584
▁pounder	-5585
▁renamed	-5586
▁seventh	-5587
▁shipped	-5588
▁shortly	-5589
▁systems	-5590
▁theatre	-5591
▁victims	-5592
▁Athletic	-5593
▁Campbell	-5594
▁Goldberg	-5595
▁Guatemal	-5596
▁Hospital	-5597
▁Robinson	-5598
▁Southern	-5599
▁Stirling	-5600
▁arrested	-5601
▁attained	-5602
▁carrying	-5603
▁deterior	-5604
▁fastball	-5605
▁forehead	-5606
▁formerly	-5607
▁friendly	-5608
▁observed	-5609
▁province	-5610
▁revealed	-5611
▁students	-5612
▁suitable	-5613
▁Catalinas	-5614
▁Holocaust	-5615
▁barangays	-5616
▁describes	-5617
▁districts	-5618
▁excavated	-5619
▁executive	-5620
▁governess	-5621
▁heartland	-5622
▁implement	-5623
▁installed	-5624
▁interpret	-5625
▁knowledge	-5626
▁mentioned	-5627
▁northward	-5628
▁organised	-5629
▁partially	-5630
▁purchased	-5631
▁remainder	-5632
▁selection	-5633
▁strategic	-5634
▁succeeded	-5635
▁suffering	-5636
▁weakening	-5637
▁Austerlitz	-5638
▁Depression	-5639
▁Indigenous	-5640
▁activities	-5641
▁ambassador	-5642
▁amphibious	-5643
▁approached	-5644
▁architects	-5645
▁controlled	-5646
▁everything	-5647
▁facilities	-5648
▁strengthen	-5649
▁structures	-5650
▁themselves	-5651
▁Britannicus	-5652
▁circulation	-5653
▁encountered	-5654
▁paleontolog	-5655
▁temporarily	-5656
▁transported	-5657
▁Additionally	-5658
▁commemorated	-5659
▁organisation	-5660
▁international	-5661
▁Administration	-5662
▁archaeological	-5663
▁classification	-5664
▁reinforcements	-5665
fa	-5666
jo	-5667
ns	-5668
sy	-5669
yg	-5670
▁i	-5671
▁¥	-5672
▁“	-5673
▁”	-5674
ait	-5675
aka	-5676
arl	-5677
epp	-5678
mit	-5679
mod	-5680
ocr	-5681
oom	-5682
rec	-5683
ump	-5684
zen	-5685
▁CH	-5686
▁Gi	-5687
▁Ho	-5688
▁Li	-5689
▁Ol	-5690
▁Sa	-5691
▁Tu	-5692
▁ju	-5693
▁na	-5694
▁vs	-5695
adem	-5696
adow	-5697
alse	-5698
aria	-5699
ayan	-5700
cers	-5701
egas	-5702
eler	-5703
eman	-5704
emed	-5705
ford	-5706
gets	-5707
icit	-5708
icts	-5709
iful	-5710
inia	-5711
math	-5712
ming	-5713
nest	-5714
oire	-5715
ours	-5716
suit	-5717
utch	-5718
▁Att	-5719
▁Bai	-5720
▁Bal	-5721
▁Bet	-5722
▁Bur	-5723
▁Dar	-5724
▁Dav	-5725
▁Erm	-5726
▁Far	-5727
▁Gen	-5728
▁III	-5729
▁Jac	-5730
▁Lim	-5731
▁MTV	-5732
▁Mil	-5733
▁Nic	-5734
▁Pit	-5735
▁Pri	-5736
▁Reb	-5737
▁Rem	-5738
▁Ric	-5739
▁Tod	-5740
▁Tok	-5741
▁Top	-5742
▁Tri	-5743
▁agg	-5744
▁bed	-5745
▁bon	-5746
▁dry	-5747
▁egg	-5748
▁eth	-5749
▁fem	-5750
▁hun	-5751
▁lot	-5752
▁map	-5753
▁mem	-5754
▁rig	-5755
▁rim	-5756
▁som	-5757
▁unp	-5758
▁ven	-5759
▁wan	-5760
acher	-5761
agues	-5762
allas	-5763
ayers	-5764
iform	-5765
ijing	-5766
inary	-5767
inite	-5768
issam	-5769
ordin	-5770
orney	-5771
power	-5772
quita	-5773
razil	-5774
readn	-5775
riage	-5776
ronom	-5777
stone	-5778
whelm	-5779
yards	-5780
▁Aces	-5781
▁Anth	-5782
▁Arts	-5783
▁Book	-5784
▁Cast	-5785
▁Dodd	-5786
▁Flav	-5787
▁Hart	-5788
▁Hell	-5789
▁Husb	-5790
▁Juan	-5791
▁Keny	-5792
▁Lake	-5793
▁Land	-5794
▁Laur	-5795
▁Line	-5796
▁Manh	-5797
▁Moon	-5798
▁Oman	-5799
▁Palm	-5800
▁Publ	-5801
▁Sega	-5802
▁Step	-5803
▁USSR	-5804
▁Ware	-5805
▁alle	-5806
▁belt	-5807
▁bone	-5808
▁cart	-5809
▁fall	-5810
▁fash	-5811
▁gren	-5812
▁heat	-5813
▁hung	-5814
▁insp	-5815
▁mere	-5816
▁poll	-5817
▁pros	-5818
▁push	-5819
▁seed	-5820
▁seek	-5821
▁tend	-5822
▁test	-5823
▁tone	-5824
▁tunn	-5825
▁vice	-5826
▁wave	-5827
altham	-5828
ertain	-5829
estyle	-5830
iation	-5831
ighter	-5832
inking	-5833
phoons	-5834
urring	-5835
▁Actor	-5836
▁Again	-5837
▁Armen	-5838
▁Brock	-5839
▁Brune	-5840
▁Chile	-5841
▁Domin	-5842
▁Eight	-5843
▁Games	-5844
▁Inter	-5845
▁Mayor	-5846
▁Paris	-5847
▁Songs	-5848
▁Third	-5849
▁Tomas	-5850
▁Water	-5851
▁Weser	-5852
▁Winds	-5853
▁adapt	-5854
▁avoid	-5855
▁black	-5856
▁cause	-5857
▁cited	-5858
▁crews	-5859
▁dedic	-5860
▁depos	-5861
▁drums	-5862
▁exact	-5863
▁frame	-5864
▁fruit	-5865
▁glass	-5866
▁gusts	-5867
▁hired	-5868
▁honor	-5869
▁memor	-5870
▁moral	-5871
▁palms	-5872
▁roles	-5873
▁salam	-5874
▁serve	-5875
▁shots	-5876
▁study	-5877
▁surpr	-5878
▁truck	-5879
▁unarm	-5880
▁uncle	-5881
attered	-5882
itizens	-5883
ogether	-5884
osexual	-5885
thening	-5886
uilding	-5887
utation	-5888
▁Armstr	-5889
▁Brazil	-5890
▁Columb	-5891
▁Gloire	-5892
▁Keiser	-5893
▁People	-5894
▁Reigns	-5895
▁Strong	-5896
▁Unlike	-5897
▁Warner	-5898
▁advice	-5899
▁allows	-5900
▁amount	-5901
▁branch	-5902
▁burned	-5903
▁campus	-5904
▁chance	-5905
▁chiral	-5906
▁convin	-5907
▁debate	-5908
▁desire	-5909
▁encour	-5910
▁famous	-5911
▁fellow	-5912
▁finish	-5913
▁formal	-5914
▁gained	-5915
▁illust	-5916
▁issues	-5917
▁jungle	-5918
▁lacked	-5919
▁lasted	-5920
▁letter	-5921
▁loaded	-5922
▁market	-5923
▁mature	-5924
▁passes	-5925
▁phylog	-5926
▁preced	-5927
▁refuel	-5928
▁reject	-5929
▁reserv	-5930
▁rights	-5931
▁satisf	-5932
▁seeing	-5933
▁specul	-5934
▁stable	-5935
▁streak	-5936
▁stream	-5937
▁sudden	-5938
▁surviv	-5939
▁tested	-5940
▁vessel	-5941
▁wealth	-5942
angement	-5943
entially	-5944
plicated	-5945
unicipal	-5946
▁Beijing	-5947
▁Belgium	-5948
▁Colonel	-5949
▁Critics	-5950
▁Harvard	-5951
▁Hayward	-5952
▁Miryang	-5953
▁Waltham	-5954
▁classic	-5955
▁defence	-5956
▁demands	-5957
▁earning	-5958
▁emerged	-5959
▁erosion	-5960
▁escaped	-5961
▁exhaust	-5962
▁failure	-5963
▁falling	-5964
▁fashion	-5965
▁follows	-5966
▁gliders	-5967
▁harbour	-5968
▁holding	-5969
▁intense	-5970
▁minimum	-5971
▁musical	-5972
▁mystery	-5973
▁painted	-5974
▁paralle	-5975
▁placing	-5976
▁portray	-5977
▁protect	-5978
▁ramming	-5979
▁rebuilt	-5980
▁replace	-5981
▁reveals	-5982
▁rounded	-5983
▁shutout	-5984
▁snowmen	-5985
▁suicide	-5986
▁surrend	-5987
▁targets	-5988
▁tracked	-5989
▁uniform	-5990
issamphib	-5991
ropolitan	-5992
▁Canadian	-5993
▁Constant	-5994
▁Germania	-5995
▁Husbands	-5996
▁Junction	-5997
▁Official	-5998
▁Triassic	-5999
▁accommod	-6000
▁adoption	-6001
▁airstrip	-6002
▁breaking	-6003
▁chairman	-6004
▁commerce	-6005
▁competed	-6006
▁controls	-6007
▁cultural	-6008
▁defences	-6009
▁descends	-6010
▁external	-6011
▁flooding	-6012
▁incident	-6013
▁mountain	-6014
▁obtained	-6015
▁predomin	-6016
▁prepared	-6017
▁products	-6018
▁reaction	-6019
▁reviewer	-6020
▁scholars	-6021
▁shipping	-6022
▁substant	-6023
▁Austrians	-6024
▁Bulgarian	-6025
▁Institute	-6026
▁Manhattan	-6027
▁Principal	-6028
▁concluded	-6029
▁conducted	-6030
▁contained	-6031
▁elevation	-6032
▁elsewhere	-6033
▁exception	-6034
▁explained	-6035
▁explosion	-6036
▁forecasts	-6037
▁frequency	-6038
▁indicated	-6039
▁intention	-6040
▁operating	-6041
▁overwhelm	-6042
▁preserved	-6043
▁producing	-6044
▁protected	-6045
▁prototype	-6046
▁provinces	-6047
▁recording	-6048
▁reference	-6049
▁secretary	-6050
▁specimens	-6051
▁synthesis	-6052
▁technical	-6053
▁victories	-6054
▁virtually	-6055
▁Christians	-6056
▁Industrial	-6057
▁Throughout	-6058
▁attempting	-6059
▁conclusion	-6060
▁controvers	-6061
▁generation	-6062
▁historical	-6063
▁horizontal	-6064
▁impossible	-6065
▁popularity	-6066
▁processing	-6067
▁recognised	-6068
▁references	-6069
▁sufficient	-6070
▁undefeated	-6071
▁Atmospheric	-6072
▁Blockbuster	-6073
▁Superfamily	-6074
▁alternative	-6075
▁disturbance	-6076
▁instruments	-6077
▁involvement	-6078
▁opportunity	-6079
▁participate	-6080
▁possibility	-6081
▁subtropical	-6082
▁conventional	-6083
▁Reconnaissance	-6084
▁infrastructure	-6085
Pa	-6086
RT	-6087
my	-6088
sl	-6089
ée	-6090
WGC	-6091
ana	-6092
awn	-6093
dac	-6094
eld	-6095
enh	-6096
eta	-6097
hel	-6098
het	-6099
mus	-6100
opa	-6101
put	-6102
rox	-6103
uls	-6104
usō	-6105
war	-6106
yer	-6107
▁AF	-6108
▁HV	-6109
▁Ph	-6110
▁Ut	-6111
▁Zi	-6112
▁ec	-6113
▁ho	-6114
▁ic	-6115
▁yd	-6116
acio	-6117
amin	-6118
azon	-6119
down	-6120
eats	-6121
ethe	-6122
ffic	-6123
fred	-6124
geon	-6125
iday	-6126
iger	-6127
iste	-6128
king	-6129
leut	-6130
mann	-6131
oked	-6132
oped	-6133
paea	-6134
post	-6135
upit	-6136
wehr	-6137
ygen	-6138
yles	-6139
▁Amy	-6140
▁Ana	-6141
▁BBC	-6142
▁CDO	-6143
▁Cas	-6144
▁Cor	-6145
▁Dam	-6146
▁Fer	-6147
▁Fin	-6148
▁Fre	-6149
▁Haw	-6150
▁Hot	-6151
▁IGN	-6152
▁Inv	-6153
▁Jer	-6154
▁Mov	-6155
▁NBA	-6156
▁Oil	-6157
▁Pis	-6158
▁Rog	-6159
▁Sib	-6160
▁Sun	-6161
▁Tre	-6162
▁Ult	-6163
▁Way	-6164
▁abb	-6165
▁bal	-6166
▁dom	-6167
▁dut	-6168
▁nam	-6169
▁nep	-6170
▁pad	-6171
▁sav	-6172
▁sun	-6173
▁tal	-6174
▁vac	-6175
acing	-6176
acrif	-6177
ankin	-6178
ashed	-6179
athed	-6180
atoon	-6181
chers	-6182
ewise	-6183
ician	-6184
igula	-6185
ilers	-6186
itled	-6187
olver	-6188
ordon	-6189
oreno	-6190
ouser	-6191
rared	-6192
reted	-6193
▁Bank	-6194
▁CWGC	-6195
▁Card	-6196
▁Celt	-6197
▁Conn	-6198
▁Eric	-6199
▁Five	-6200
▁Ford	-6201
▁Fusō	-6202
▁Good	-6203
▁Here	-6204
▁Koni	-6205
▁Krov	-6206
▁Nazi	-6207
▁Norm	-6208
▁Orig	-6209
▁Pier	-6210
▁Plan	-6211
▁Poll	-6212
▁Prof	-6213
▁Rain	-6214
▁Ropa	-6215
▁Self	-6216
▁Sher	-6217
▁Sull	-6218
▁Take	-6219
▁Wall	-6220
▁Ward	-6221
▁Wars	-6222
▁appl	-6223
▁bird	-6224
▁cage	-6225
▁canc	-6226
▁doub	-6227
▁draf	-6228
▁drew	-6229
▁eggs	-6230
▁else	-6231
▁exch	-6232
▁farm	-6233
▁gain	-6234
▁heir	-6235
▁horr	-6236
▁jima	-6237
▁kind	-6238
▁lock	-6239
▁mbar	-6240
▁obso	-6241
▁ones	-6242
▁palm	-6243
▁punk	-6244
▁risk	-6245
▁rows	-6246
▁sand	-6247
▁sank	-6248
▁sche	-6249
▁shel	-6250
▁skin	-6251
▁sure	-6252
▁true	-6253
▁wors	-6254
achute	-6255
anders	-6256
cribed	-6257
eption	-6258
keeper	-6259
metric	-6260
mitted	-6261
ounced	-6262
slides	-6263
ulsion	-6264
urance	-6265
▁Chart	-6266
▁Cinem	-6267
▁Class	-6268
▁Enter	-6269
▁Guang	-6270
▁Lupit	-6271
▁Manch	-6272
▁Melan	-6273
▁Milit	-6274
▁Pasig	-6275
▁Rajah	-6276
▁Ridge	-6277
▁Shane	-6278
▁Thanh	-6279
▁Upper	-6280
▁Villa	-6281
▁Years	-6282
▁actor	-6283
▁adult	-6284
▁adver	-6285
▁agent	-6286
▁bases	-6287
▁basin	-6288
▁birth	-6289
▁bonus	-6290
▁clade	-6291
▁conqu	-6292
▁curve	-6293
▁deleg	-6294
▁disag	-6295
▁false	-6296
▁fired	-6297
▁frown	-6298
▁frust	-6299
▁graph	-6300
▁heard	-6301
▁innov	-6302
▁joint	-6303
▁limbs	-6304
▁loyal	-6305
▁mayor	-6306
▁merch	-6307
▁metre	-6308
▁nucle	-6309
▁offer	-6310
▁paper	-6311
▁phase	-6312
▁piece	-6313
▁princ	-6314
▁proce	-6315
▁recru	-6316
▁renew	-6317
▁reven	-6318
▁troub	-6319
▁urban	-6320
▁waste	-6321
▁watch	-6322
▁waves	-6323
▁woman	-6324
▁wrink	-6325
ignment	-6326
itation	-6327
ometric	-6328
ressive	-6329
stances	-6330
▁Abwehr	-6331
▁Arthur	-6332
▁Bolton	-6333
▁Caesar	-6334
▁Eighth	-6335
▁Ermita	-6336
▁Hankin	-6337
▁Health	-6338
▁Martin	-6339
▁Moreno	-6340
▁Murdac	-6341
▁Square	-6342
▁Stuart	-6343
▁Walter	-6344
▁Xalapa	-6345
▁adding	-6346
▁animal	-6347
▁armies	-6348
▁bypass	-6349
▁cement	-6350
▁charge	-6351
▁editor	-6352
▁empire	-6353
▁employ	-6354
▁enters	-6355
▁finest	-6356
▁leader	-6357
▁legend	-6358
▁lifted	-6359
▁mainly	-6360
▁mechan	-6361
▁medium	-6362
▁meters	-6363
▁nephew	-6364
▁normal	-6365
▁option	-6366
▁rarely	-6367
▁rivals	-6368
▁roster	-6369
▁scales	-6370
▁singer	-6371
▁specif	-6372
▁stapes	-6373
▁suburb	-6374
▁temple	-6375
acrifice	-6376
cription	-6377
etheless	-6378
orticult	-6379
ropriate	-6380
yrinthod	-6381
▁Charlie	-6382
▁Josepha	-6383
▁Krovanh	-6384
▁Overall	-6385
▁Platoon	-6386
▁Poppaea	-6387
▁Poquita	-6388
▁Stephen	-6389
▁Vickers	-6390
▁absence	-6391
▁accused	-6392
▁advisor	-6393
▁beating	-6394
▁bombard	-6395
▁clashes	-6396
▁columns	-6397
▁content	-6398
▁cruiser	-6399
▁flooded	-6400
▁freedom	-6401
▁growing	-6402
▁islands	-6403
▁manager	-6404
▁marines	-6405
▁massive	-6406
▁minimal	-6407
▁notable	-6408
▁nothing	-6409
▁parents	-6410
▁peaking	-6411
▁perhaps	-6412
▁rematch	-6413
▁require	-6414
▁serving	-6415
▁visible	-6416
▁walking	-6417
▁witness	-6418
▁writers	-6419
ronomical	-6420
▁Caligula	-6421
▁Catholic	-6422
▁Fighting	-6423
▁Military	-6424
▁Portland	-6425
▁accompan	-6426
▁analysis	-6427
▁arranged	-6428
▁assembly	-6429
▁athletes	-6430
▁depicted	-6431
▁entitled	-6432
▁entrance	-6433
▁evacuate	-6434
▁familiar	-6435
▁floating	-6436
▁function	-6437
▁infrared	-6438
▁midnight	-6439
▁moderate	-6440
▁obsolete	-6441
▁physical	-6442
▁pitching	-6443
▁prompted	-6444
▁realized	-6445
▁recalled	-6446
▁recently	-6447
▁somewhat	-6448
▁speaking	-6449
▁subjects	-6450
▁treasure	-6451
▁typhoons	-6452
▁vicinity	-6453
▁Authority	-6454
▁Hollywood	-6455
▁Steinberg	-6456
▁Victorian	-6457
▁Wanderers	-6458
▁broadcast	-6459
▁centuries	-6460
▁collected	-6461
▁commented	-6462
▁convinced	-6463
▁directors	-6464
▁displaced	-6465
▁estimates	-6466
▁excellent	-6467
▁execution	-6468
▁existence	-6469
▁expressed	-6470
▁gradually	-6471
▁histories	-6472
▁household	-6473
▁lifestyle	-6474
▁municipal	-6475
▁objective	-6476
▁opponents	-6477
▁possessed	-6478
▁predecess	-6479
▁presented	-6480
▁primitive	-6481
▁principal	-6482
▁programme	-6483
▁scattered	-6484
▁storyline	-6485
▁strongest	-6486
▁torpedoes	-6487
▁Conference	-6488
▁Thanhouser	-6489
▁attributed	-6490
▁constantly	-6491
▁difficulty	-6492
▁experiment	-6493
▁literature	-6494
▁monumental	-6495
▁properties	-6496
▁resistance	-6497
▁supporting	-6498
▁Independent	-6499
▁Labyrinthod	-6500
▁approaching	-6501
▁combination	-6502
▁differences	-6503
▁environment	-6504
▁exclusively	-6505
▁influential	-6506
▁legislature	-6507
▁operational	-6508
▁recommended	-6509
▁salamanders	-6510
▁Astronomical	-6511
▁civilization	-6512
▁nevertheless	-6513
▁southeastern	-6514
▁specifically	-6515
▁surroundings	-6516
▁unsuccessful	-6517
▁championships	-6518
▁significantly	-6519
▁representative	-6520
DS	-6521
gl	-6522
ky	-6523
ta	-6524
ys	-6525
ño	-6526
▁α	-6527
▁⁄	-6528
Pau	-6529
ada	-6530
aga	-6531
agu	-6532
ald	-6533
apo	-6534
apt	-6535
ari	-6536
ata	-6537
atu	-6538
ela	-6539
enz	-6540
era	-6541
hou	-6542
iah	-6543
ioc	-6544
ker	-6545
nae	-6546
nie	-6547
pet	-6548
ply	-6549
raq	-6550
sen	-6551
wed	-6552
zed	-6553
▁Fe	-6554
▁Mi	-6555
▁Mu	-6556
▁Tw	-6557
▁XX	-6558
▁bi	-6559
▁et	-6560
▁li	-6561
▁ly	-6562
Pauw	-6563
acec	-6564
agin	-6565
agon	-6566
alem	-6567
amic	-6568
ancy	-6569
ardo	-6570
earl	-6571
ifts	-6572
iosa	-6573
ipel	-6574
isco	-6575
itis	-6576
ivan	-6577
juan	-6578
mate	-6579
mpan	-6580
oule	-6581
part	-6582
uela	-6583
uity	-6584
umes	-6585
ycle	-6586
▁AFI	-6587
▁Arg	-6588
▁Atl	-6589
▁Bor	-6590
▁Bru	-6591
▁Dem	-6592
▁Den	-6593
▁Dis	-6594
▁Dol	-6595
▁Dou	-6596
▁Dur	-6597
▁Edu	-6598
▁Ell	-6599
▁Gle	-6600
▁Hul	-6601
▁Inc	-6602
▁Ins	-6603
▁Las	-6604
▁Let	-6605
▁Max	-6606
▁Mig	-6607
▁Mya	-6608
▁Non	-6609
▁Rad	-6610
▁Ros	-6611
▁Rud	-6612
▁Sab	-6613
▁Sik	-6614
▁Sol	-6615
▁Syl	-6616
▁Tag	-6617
▁Tax	-6618
▁Tom	-6619
▁Tow	-6620
▁Tro	-6621
▁adj	-6622
▁aft	-6623
▁ash	-6624
▁aux	-6625
▁awa	-6626
▁bag	-6627
▁ban	-6628
▁bow	-6629
▁die	-6630
▁gar	-6631
▁hPa	-6632
▁hol	-6633
▁hot	-6634
▁jaw	-6635
▁rhy	-6636
▁rib	-6637
▁saf	-6638
▁say	-6639
▁tub	-6640
▁unh	-6641
▁vot	-6642
agers	-6643
ainan	-6644
aints	-6645
andal	-6646
ansas	-6647
arked	-6648
ategy	-6649
class	-6650
earch	-6651
eased	-6652
elson	-6653
ender	-6654
ensus	-6655
ertil	-6656
ettes	-6657
geant	-6658
icals	-6659
ifted	-6660
ights	-6661
ingly	-6662
itime	-6663
jamin	-6664
music	-6665
ocent	-6666
onent	-6667
orage	-6668
organ	-6669
osite	-6670
otage	-6671
rison	-6672
stown	-6673
taken	-6674
ulsed	-6675
▁Belf	-6676
▁Boys	-6677
▁Care	-6678
▁Fire	-6679
▁Fort	-6680
▁Geop	-6681
▁Hend	-6682
▁Init	-6683
▁Iraq	-6684
▁José	-6685
▁Kent	-6686
▁Near	-6687
▁Nint	-6688
▁Okin	-6689
▁Once	-6690
▁Pola	-6691
▁Post	-6692
▁Upon	-6693
▁Vice	-6694
▁Virg	-6695
▁asym	-6696
▁call	-6697
▁canv	-6698
▁coal	-6699
▁dock	-6700
▁draw	-6701
▁frag	-6702
▁gate	-6703
▁girl	-6704
▁king	-6705
▁mart	-6706
▁mess	-6707
▁mile	-6708
▁mist	-6709
▁obsc	-6710
▁outs	-6711
▁pope	-6712
▁pron	-6713
▁race	-6714
▁seal	-6715
▁seas	-6716
▁sons	-6717
▁sort	-6718
▁spar	-6719
▁tell	-6720
▁tens	-6721
▁thin	-6722
▁trip	-6723
▁twin	-6724
▁wond	-6725
agoons	-6726
anners	-6727
atures	-6728
ederal	-6729
ivated	-6730
ounted	-6731
season	-6732
ultane	-6733
usalem	-6734
uthors	-6735
utical	-6736
vester	-6737
writer	-6738
▁Adolf	-6739
▁Below	-6740
▁Board	-6741
▁Boule	-6742
▁Carol	-6743
▁Crown	-6744
▁David	-6745
▁Dutch	-6746
▁Edwin	-6747
▁Gerry	-6748
▁Grant	-6749
▁Guild	-6750
▁Jacob	-6751
▁Julio	-6752
▁Keith	-6753
▁Linfa	-6754
▁Local	-6755
▁Minor	-6756
▁Night	-6757
▁Party	-6758
▁Patri	-6759
▁Pearl	-6760
▁Pliny	-6761
▁Precl	-6762
▁Randy	-6763
▁Recon	-6764
▁Roger	-6765
▁Rosen	-6766
▁Sandy	-6767
▁Sound	-6768
▁Tokyo	-6769
▁Yeats	-6770
▁acres	-6771
▁ambig	-6772
▁angle	-6773
▁autom	-6774
▁aware	-6775
▁backl	-6776
▁backs	-6777
▁basal	-6778
▁basis	-6779
▁bould	-6780
▁cargo	-6781
▁casem	-6782
▁catap	-6783
▁cerem	-6784
▁comes	-6785
▁demol	-6786
▁diary	-6787
▁equal	-6788
▁extra	-6789
▁fault	-6790
▁flatt	-6791
▁float	-6792
▁folds	-6793
▁gradu	-6794
▁green	-6795
▁initi	-6796
▁integ	-6797
▁labor	-6798
▁legal	-6799
▁lying	-6800
▁media	-6801
▁meets	-6802
▁mobil	-6803
▁ninet	-6804
▁novel	-6805
▁ornam	-6806
▁plane	-6807
▁postp	-6808
▁rural	-6809
▁shore	-6810
▁sidel	-6811
▁simpl	-6812
▁spect	-6813
▁tower	-6814
▁towns	-6815
▁wider	-6816
▁words	-6817
istical	-6818
ivalent	-6819
ocratic	-6820
ologies	-6821
vements	-6822
▁Alfred	-6823
▁Amazon	-6824
▁Combat	-6825
▁DePauw	-6826
▁Dujuan	-6827
▁Durham	-6828
▁Gordon	-6829
▁Hainan	-6830
▁Kansas	-6831
▁Legisl	-6832
▁Locust	-6833
▁Manchu	-6834
▁Miguel	-6835
▁Nether	-6836
▁Olmecs	-6837
▁Police	-6838
▁Public	-6839
▁Review	-6840
▁Surviv	-6841
▁Turret	-6842
▁Valley	-6843
▁Wolver	-6844
▁academ	-6845
▁acting	-6846
▁albums	-6847
▁allies	-6848
▁anyone	-6849
▁assaul	-6850
▁assess	-6851
▁auxili	-6852
▁basalt	-6853
▁bought	-6854
▁causes	-6855
▁church	-6856
▁circum	-6857
▁convey	-6858
▁county	-6859
▁decade	-6860
▁deemed	-6861
▁disrup	-6862
▁driven	-6863
▁duties	-6864
▁ensure	-6865
▁fields	-6866
▁gather	-6867
▁housed	-6868
▁income	-6869
▁instit	-6870
▁insuff	-6871
▁interf	-6872
▁lowest	-6873
▁memory	-6874
▁missed	-6875
▁moment	-6876
▁noting	-6877
▁offers	-6878
▁overlo	-6879
▁oxygen	-6880
▁parade	-6881
▁poison	-6882
▁poster	-6883
▁pursue	-6884
▁reform	-6885
▁refuge	-6886
▁republ	-6887
▁resour	-6888
▁retain	-6889
▁sailed	-6890
▁seeded	-6891
▁shadow	-6892
▁shares	-6893
▁spacec	-6894
▁stayed	-6895
▁strict	-6896
▁strugg	-6897
▁summar	-6898
▁target	-6899
▁travel	-6900
▁trying	-6901
▁twelve	-6902
▁tympan	-6903
▁unders	-6904
▁unlike	-6905
▁videos	-6906
▁vision	-6907
▁Belfast	-6908
▁Between	-6909
▁Celtics	-6910
▁Foreign	-6911
▁Indiana	-6912
▁Medical	-6913
▁Melanau	-6914
▁Mexican	-6915
▁Monitor	-6916
▁Okinawa	-6917
▁Ricardo	-6918
▁Rollins	-6919
▁Support	-6920
▁Univers	-6921
▁attract	-6922
▁believe	-6923
▁charity	-6924
▁comprom	-6925
▁confron	-6926
▁craters	-6927
▁drummer	-6928
▁enjoyed	-6929
▁federal	-6930
▁fifteen	-6931
▁founded	-6932
▁grounds	-6933
▁gunfire	-6934
▁hitting	-6935
▁learned	-6936
▁martial	-6937
▁obvious	-6938
▁opposed	-6939
▁partner	-6940
▁perfect	-6941
▁playoff	-6942
▁pleased	-6943
▁princip	-6944
▁pursued	-6945
▁repatri	-6946
▁reprodu	-6947
▁resumed	-6948
▁retreat	-6949
▁rivalry	-6950
▁roughly	-6951
▁settled	-6952
▁society	-6953
▁starter	-6954
▁traffic	-6955
▁viewers	-6956
ibilities	-6957
istration	-6958
▁Allmusic	-6959
▁Atlantic	-6960
▁Benjamin	-6961
▁Breakout	-6962
▁Citizens	-6963
▁Columbia	-6964
▁Hamilcar	-6965
▁Nintendo	-6966
▁Williams	-6967
▁accurate	-6968
▁acquired	-6969
▁approved	-6970
▁believes	-6971
▁bringing	-6972
▁electric	-6973
▁emphasis	-6974
▁employed	-6975
▁engineer	-6976
▁episodes	-6977
▁favorite	-6978
▁flotilla	-6979
▁frequent	-6980
▁frigates	-6981
▁graphics	-6982
▁improved	-6983
▁inspired	-6984
▁invented	-6985
▁lighting	-6986
▁modified	-6987
▁opposing	-6988
▁patterns	-6989
▁purchase	-6990
▁purposes	-6991
▁regional	-6992
▁repeated	-6993
▁repulsed	-6994
▁reserves	-6995
▁resigned	-6996
▁restored	-6997
▁speciosa	-6998
▁strategy	-6999
▁striking	-7000
▁supposed	-7001
▁vocalist	-7002
▁weakness	-7003
▁wrinkles	-7004
▁writings	-7005
readnought	-7006
▁Architect	-7007
▁Armstrong	-7008
▁Boulevard	-7009
▁Cristobal	-7010
▁Francisco	-7011
▁Henderson	-7012
▁Jerusalem	-7013
▁Selfridge	-7014
▁Squadrons	-7015
▁Sylvester	-7016
▁Transport	-7017
▁administr	-7018
▁agreement	-7019
▁assembled	-7020
▁attracted	-7021
▁authority	-7022
▁collapsed	-7023
▁concludes	-7024
▁dedicated	-7025
▁determine	-7026
▁dispersed	-7027
▁disturbed	-7028
▁evolution	-7029
▁exhausted	-7030
▁expansion	-7031
▁extension	-7032
▁featuring	-7033
▁flattened	-7034
▁guitarist	-7035
▁horticult	-7036
▁immediate	-7037
▁intermedi	-7038
▁landscape	-7039
▁locations	-7040
▁magazines	-7041
▁maintains	-7042
▁materials	-7043
▁officials	-7044
▁ornaments	-7045
▁propelled	-7046
▁providing	-7047
▁realistic	-7048
▁relatives	-7049
▁replacing	-7050
▁retaining	-7051
▁screaming	-7052
▁submarine	-7053
▁superstru	-7054
▁temporary	-7055
▁thickness	-7056
▁unarmored	-7057
▁underwent	-7058
▁variation	-7059
▁Federation	-7060
▁Praetorian	-7061
▁Preclassic	-7062
▁Valentines	-7063
▁Youngstown	-7064
▁accomplish	-7065
▁apparently	-7066
▁archbishop	-7067
▁asymmetric	-7068
▁challenged	-7069
▁consisting	-7070
▁containing	-7071
▁conversion	-7072
▁delivering	-7073
▁department	-7074
▁dispatched	-7075
▁equestrian	-7076
▁equivalent	-7077
▁homosexual	-7078
▁indigenous	-7079
▁permission	-7080
▁photograph	-7081
▁postseason	-7082
▁reputation	-7083
▁soundtrack	-7084
▁spacecraft	-7085
▁volunteers	-7086
▁Geophysical	-7087
▁Netherlands	-7088
▁commemorate	-7089
▁complicated	-7090
▁considering	-7091
▁descendants	-7092
▁extensively	-7093
▁independent	-7094
▁nominations	-7095
▁observation	-7096
▁publication	-7097
▁Headquarters	-7098
▁Metropolitan	-7099
▁architecture	-7100
▁instructions	-7101
▁insufficient	-7102
▁nationalists	-7103
▁temperatures	-7104
▁circumstances	-7105
▁northeastward	-7106
▁vulnerability	-7107
▁paleontologist	-7108
EA	-7109
PW	-7110
ca	-7111
▁Ō	-7112
abs	-7113
ado	-7114
agh	-7115
ami	-7116
anz	-7117
aro	-7118
cow	-7119
din	-7120
ece	-7121
egu	-7122
hib	-7123
ids	-7124
igr	-7125
ixt	-7126
len	-7127
nic	-7128
nik	-7129
osh	-7130
rac	-7131
rep	-7132
rie	-7133
roc	-7134
vis	-7135
▁AP	-7136
▁BD	-7137
▁Bu	-7138
▁ES	-7139
▁FI	-7140
▁Ga	-7141
▁ID	-7142
▁Ig	-7143
▁Ry	-7144
▁Tú	-7145
▁bu	-7146
▁ge	-7147
▁lb	-7148
▁sq	-7149
abor	-7150
ampa	-7151
apol	-7152
apse	-7153
aret	-7154
asco	-7155
atim	-7156
atio	-7157
bury	-7158
core	-7159
dney	-7160
ends	-7161
eral	-7162
erts	-7163
etus	-7164
fare	-7165
fort	-7166
gery	-7167
iang	-7168
iant	-7169
inks	-7170
itch	-7171
ixty	-7172
lets	-7173
liam	-7174
oded	-7175
oint	-7176
okes	-7177
olas	-7178
olly	-7179
onic	-7180
onom	-7181
oral	-7182
orer	-7183
qual	-7184
raph	-7185
reck	-7186
ribe	-7187
roit	-7188
roll	-7189
spap	-7190
sych	-7191
time	-7192
urst	-7193
uter	-7194
utor	-7195
vant	-7196
ylum	-7197
▁Amb	-7198
▁Anc	-7199
▁Bir	-7200
▁Bow	-7201
▁Bre	-7202
▁Coc	-7203
▁Cow	-7204
▁Eam	-7205
▁Eis	-7206
▁Ext	-7207
▁Hud	-7208
▁JNA	-7209
▁Jon	-7210
▁Kim	-7211
▁LRT	-7212
▁Lar	-7213
▁Lee	-7214
▁Lev	-7215
▁Lik	-7216
▁Loy	-7217
▁Lun	-7218
▁Nam	-7219
▁Nep	-7220
▁Ord	-7221
▁Pad	-7222
▁Pen	-7223
▁Pug	-7224
▁Red	-7225
▁Rel	-7226
▁Tal	-7227
▁Tim	-7228
▁Whe	-7229
▁Yap	-7230
▁aer	-7231
▁aim	-7232
▁ans	-7233
▁bud	-7234
▁doc	-7235
▁dub	-7236
▁lad	-7237
▁pil	-7238
▁ske	-7239
▁spr	-7240
▁squ	-7241
▁sym	-7242
▁thr	-7243
▁tin	-7244
actor	-7245
adors	-7246
aghan	-7247
arthy	-7248
cious	-7249
ctors	-7250
ellow	-7251
erted	-7252
hiles	-7253
ifies	-7254
illed	-7255
ineer	-7256
isher	-7257
isive	-7258
istol	-7259
lease	-7260
mates	-7261
orski	-7262
rammy	-7263
under	-7264
werft	-7265
▁Amor	-7266
▁Arab	-7267
▁Blue	-7268
▁Chin	-7269
▁Educ	-7270
▁Erie	-7271
▁Etau	-7272
▁Falk	-7273
▁Form	-7274
▁Gard	-7275
▁Hero	-7276
▁Hunt	-7277
▁Jeff	-7278
▁Kamp	-7279
▁Lord	-7280
▁Mill	-7281
▁Miss	-7282
▁NJPW	-7283
▁Niag	-7284
▁Pete	-7285
▁Piso	-7286
▁Punk	-7287
▁Sibu	-7288
▁Taft	-7289
▁Turn	-7290
▁amid	-7291
▁barr	-7292
▁blow	-7293
▁bond	-7294
▁calc	-7295
▁chur	-7296
▁disl	-7297
▁fine	-7298
▁gall	-7299
▁gets	-7300
▁laud	-7301
▁lips	-7302
▁magn	-7303
▁mand	-7304
▁narr	-7305
▁neut	-7306
▁none	-7307
▁otic	-7308
▁pier	-7309
▁rend	-7310
▁roll	-7311
▁stro	-7312
▁suit	-7313
▁symp	-7314
▁tall	-7315
▁teen	-7316
▁tops	-7317
▁warm	-7318
abaret	-7319
alists	-7320
amorph	-7321
ampton	-7322
apolis	-7323
atinum	-7324
dinand	-7325
ensity	-7326
enteen	-7327
iddles	-7328
inople	-7329
itated	-7330
ocated	-7331
ograms	-7332
orakot	-7333
teenth	-7334
thlete	-7335
utiful	-7336
▁Adams	-7337
▁Canal	-7338
▁Dante	-7339
▁Drans	-7340
▁Elder	-7341
▁Gaius	-7342
▁Hardy	-7343
▁Hulme	-7344
▁Joint	-7345
▁Krist	-7346
▁Malay	-7347
▁Month	-7348
▁Poets	-7349
▁Taegu	-7350
▁Tampa	-7351
▁Tiber	-7352
▁Turan	-7353
▁Where	-7354
▁Works	-7355
▁anger	-7356
▁categ	-7357
▁compl	-7358
▁craft	-7359
▁crown	-7360
▁daily	-7361
▁decre	-7362
▁depth	-7363
▁digit	-7364
▁falls	-7365
▁fifty	-7366
▁flour	-7367
▁goods	-7368
▁gross	-7369
▁gully	-7370
▁happy	-7371
▁holds	-7372
▁hosts	-7373
▁inner	-7374
▁liber	-7375
▁masts	-7376
▁mines	-7377
▁overl	-7378
▁partn	-7379
▁persu	-7380
▁popes	-7381
▁quite	-7382
▁rebel	-7383
▁retre	-7384
▁rooms	-7385
▁ruled	-7386
▁shall	-7387
▁sixty	-7388
▁solid	-7389
▁stead	-7390
▁steps	-7391
▁strap	-7392
▁talks	-7393
▁threw	-7394
▁train	-7395
▁tubes	-7396
▁vital	-7397
▁wants	-7398
▁write	-7399
atively	-7400
borough	-7401
ichrist	-7402
itarian	-7403
lexible	-7404
liament	-7405
mercial	-7406
ophiles	-7407
pective	-7408
version	-7409
▁Albert	-7410
▁Argent	-7411
▁Asylum	-7412
▁Baltic	-7413
▁Branch	-7414
▁Bridge	-7415
▁Column	-7416
▁Confuc	-7417
▁Fuiste	-7418
▁Grammy	-7419
▁Greece	-7420
▁Harbor	-7421
▁Howard	-7422
▁Hrvats	-7423
▁Hudson	-7424
▁Laurie	-7425
▁Moscow	-7426
▁Petron	-7427
▁Philip	-7428
▁Player	-7429
▁Pugong	-7430
▁Quiapo	-7431
▁Return	-7432
▁Somali	-7433
▁Sydney	-7434
▁advert	-7435
▁aerial	-7436
▁agency	-7437
▁agents	-7438
▁apprec	-7439
▁arrive	-7440
▁assass	-7441
▁autumn	-7442
▁budget	-7443
▁burial	-7444
▁commit	-7445
▁constr	-7446
▁culmin	-7447
▁cyclog	-7448
▁domest	-7449
▁downlo	-7450
▁easily	-7451
▁expect	-7452
▁handed	-7453
▁hulled	-7454
▁inches	-7455
▁matter	-7456
▁models	-7457
▁motion	-7458
▁namely	-7459
▁naming	-7460
▁online	-7461
▁overth	-7462
▁parted	-7463
▁persec	-7464
▁planes	-7465
▁posted	-7466
▁promin	-7467
▁prosec	-7468
▁pushed	-7469
▁rating	-7470
▁reduce	-7471
▁reluct	-7472
▁routes	-7473
▁runner	-7474
▁scored	-7475
▁simply	-7476
▁solely	-7477
▁spirit	-7478
▁spring	-7479
▁square	-7480
▁stress	-7481
▁subtle	-7482
▁thirty	-7483
▁unhapp	-7484
▁unique	-7485
▁values	-7486
▁viewer	-7487
▁vocals	-7488
▁voters	-7489
▁weapon	-7490
▁wheels	-7491
inations	-7492
iversary	-7493
izations	-7494
ographer	-7495
tainment	-7496
▁Ambrose	-7497
▁Armenia	-7498
▁Cambria	-7499
▁Captain	-7500
▁Coaches	-7501
▁Collier	-7502
▁Croatia	-7503
▁Detroit	-7504
▁Georgia	-7505
▁Gleason	-7506
▁Marshal	-7507
▁Morakot	-7508
▁Niagara	-7509
▁Pitcher	-7510
▁Studies	-7511
▁Variety	-7512
▁Wallace	-7513
▁acceler	-7514
▁affairs	-7515
▁alleged	-7516
▁beaches	-7517
▁bedroom	-7518
▁bombers	-7519
▁bridges	-7520
▁calibre	-7521
▁carrier	-7522
▁conserv	-7523
▁convers	-7524
▁delayed	-7525
▁dismiss	-7526
▁equator	-7527
▁finding	-7528
▁forests	-7529
▁funding	-7530
▁handful	-7531
▁helping	-7532
▁improve	-7533
▁joining	-7534
▁keeping	-7535
▁knocked	-7536
▁markets	-7537
▁measure	-7538
▁newspap	-7539
▁notably	-7540
▁ongoing	-7541
▁persons	-7542
▁picture	-7543
▁purpose	-7544
▁putting	-7545
▁quarter	-7546
▁reasons	-7547
▁sailors	-7548
▁singles	-7549
▁soldier	-7550
▁storage	-7551
▁strikes	-7552
▁survive	-7553
▁tactics	-7554
▁talking	-7555
▁telling	-7556
▁tension	-7557
▁trained	-7558
▁trapped	-7559
▁trouble	-7560
▁unarmed	-7561
▁unusual	-7562
▁upwards	-7563
▁violent	-7564
▁warfare	-7565
criptions	-7566
quartered	-7567
▁Bulgaria	-7568
▁Cardinal	-7569
▁Claudian	-7570
▁Emperors	-7571
▁Engineer	-7572
▁Festival	-7573
▁Lawrence	-7574
▁Likewise	-7575
▁McCarthy	-7576
▁Mesoamer	-7577
▁Parthian	-7578
▁Patriots	-7579
▁Pictures	-7580
▁Portrait	-7581
▁Sikorski	-7582
▁Specials	-7583
▁Sullivan	-7584
▁Virginia	-7585
▁achieved	-7586
▁agricult	-7587
▁attorney	-7588
▁baseball	-7589
▁boulders	-7590
▁casemate	-7591
▁churches	-7592
▁civilian	-7593
▁comments	-7594
▁daylight	-7595
▁deceased	-7596
▁defended	-7597
▁demanded	-7598
▁describe	-7599
▁emperors	-7600
▁explicit	-7601
▁fourteen	-7602
▁heaviest	-7603
▁homeless	-7604
▁humanity	-7605
▁hundreds	-7606
▁hydrogen	-7607
▁instance	-7608
▁interven	-7609
▁mainland	-7610
▁maritime	-7611
▁missions	-7612
▁nautical	-7613
▁neighbor	-7614
▁numbered	-7615
▁occasion	-7616
▁operates	-7617
▁overseas	-7618
▁pitchers	-7619
▁politics	-7620
▁portions	-7621
▁portrait	-7622
▁presents	-7623
▁producer	-7624
▁property	-7625
▁provides	-7626
▁rejected	-7627
▁reptiles	-7628
▁reworked	-7629
▁sabotage	-7630
▁schedule	-7631
▁spending	-7632
▁stations	-7633
▁suddenly	-7634
▁thinking	-7635
▁thirteen	-7636
▁Admiralty	-7637
▁Alexander	-7638
▁Callaghan	-7639
▁Commander	-7640
▁Education	-7641
▁Ferdinand	-7642
▁Hurricane	-7643
▁Ironclads	-7644
▁Reception	-7645
▁Similarly	-7646
▁Southeast	-7647
▁Valentine	-7648
▁accession	-7649
▁addressed	-7650
▁anthology	-7651
▁audiences	-7652
▁capturing	-7653
▁committed	-7654
▁departure	-7655
▁dominated	-7656
▁encounter	-7657
▁exhibited	-7658
▁extremely	-7659
▁highlight	-7660
▁impressed	-7661
▁involving	-7662
▁postponed	-7663
▁practical	-7664
▁preceding	-7665
▁producers	-7666
▁promotion	-7667
▁reception	-7668
▁refueling	-7669
▁reviewers	-7670
▁signature	-7671
▁similarly	-7672
▁touchdown	-7673
▁travelled	-7674
ultaneously	-7675
▁Antichrist	-7676
▁Architects	-7677
▁Commercial	-7678
▁Dransfield	-7679
▁Inflexible	-7680
▁Originally	-7681
▁advantages	-7682
▁afterwards	-7683
▁assignment	-7684
▁attendance	-7685
▁barometric	-7686
▁businesses	-7687
▁collection	-7688
▁comparison	-7689
▁competitor	-7690
▁consulship	-7691
▁describing	-7692
▁discussion	-7693
▁earthquake	-7694
▁electronic	-7695
▁explaining	-7696
▁leadership	-7697
▁lissamphib	-7698
▁management	-7699
▁millimetre	-7700
▁occupation	-7701
▁percentage	-7702
▁principles	-7703
▁proclaimed	-7704
▁registered	-7705
▁represents	-7706
▁resolution	-7707
▁understand	-7708
▁undertaken	-7709
▁university	-7710
▁vegetation	-7711
▁vulnerable	-7712
▁Confederate	-7713
▁accompanied	-7714
▁anticipated	-7715
▁appearances	-7716
▁collections	-7717
▁communities	-7718
▁competitive	-7719
▁earthquakes	-7720
▁heavyweight	-7721
▁implemented	-7722
▁interaction	-7723
▁interpreted	-7724
▁politically	-7725
▁predecessor	-7726
▁progression	-7727
▁substantial	-7728
▁concentrated	-7729
▁contribution	-7730
▁cyclogenesis	-7731
▁deliberately	-7732
▁incorporated	-7733
▁nucleophiles	-7734
▁representing	-7735
▁universities	-7736
▁Entertainment	-7737
▁Germaniawerft	-7738
▁headquartered	-7739
▁predominantly	-7740
▁strengthening	-7741
▁traditionally	-7742
▁Constantinople	-7743
▁lissamphibians	-7744
▁transformation	-7745
▁unsuccessfully	-7746
CC	-7747
HP	-7748
HS	-7749
RE	-7750
SN	-7751
VW	-7752
dh	-7753
ko	-7754
ks	-7755
ón	-7756
Her	-7757
arr	-7758
bit	-7759
ded	-7760
eah	-7761
edu	-7762
ien	-7763
iku	-7764
iqu	-7765
nia	-7766
oit	-7767
oub	-7768
pes	-7769
ran	-7770
run	-7771
uez	-7772
uma	-7773
unc	-7774
van	-7775
▁Ba	-7776
▁CI	-7777
▁Ep	-7778
▁Oh	-7779
▁Oz	-7780
▁SP	-7781
▁UP	-7782
▁du	-7783
▁kW	-7784
▁kg	-7785
▁ng	-7786
▁ri	-7787
▁ru	-7788
abil	-7789
acer	-7790
acks	-7791
ader	-7792
agas	-7793
ails	-7794
aked	-7795
amas	-7796
ando	-7797
athé	-7798
band	-7799
book	-7800
bore	-7801
brid	-7802
burg	-7803
burn	-7804
duke	-7805
ecca	-7806
ecil	-7807
eloc	-7808
elor	-7809
emen	-7810
enan	-7811
ente	-7812
eric	-7813
hens	-7814
hera	-7815
iced	-7816
iche	-7817
ichi	-7818
ickn	-7819
ideo	-7820
iere	-7821
inea	-7822
iper	-7823
issa	-7824
lain	-7825
oard	-7826
occo	-7827
odic	-7828
ools	-7829
opes	-7830
orey	-7831
osal	-7832
oves	-7833
quir	-7834
ract	-7835
rate	-7836
rawn	-7837
rous	-7838
town	-7839
ught	-7840
uman	-7841
unes	-7842
very	-7843
yram	-7844
▁Aff	-7845
▁Age	-7846
▁Bad	-7847
▁Cag	-7848
▁Cub	-7849
▁Dal	-7850
▁Die	-7851
▁Eth	-7852
▁Gil	-7853
▁Gun	-7854
▁Hel	-7855
▁Hop	-7856
▁Inn	-7857
▁Key	-7858
▁Kip	-7859
▁Kum	-7860
▁McK	-7861
▁OVW	-7862
▁Obs	-7863
▁PHP	-7864
▁Sil	-7865
▁Sin	-7866
▁Sud	-7867
▁Syn	-7868
▁Tab	-7869
▁Tak	-7870
▁Tam	-7871
▁Web	-7872
▁ZNG	-7873
▁alk	-7874
▁arc	-7875
▁bes	-7876
▁dur	-7877
▁fro	-7878
▁ine	-7879
▁mix	-7880
▁mud	-7881
▁mut	-7882
▁obl	-7883
▁pri	-7884
▁rol	-7885
▁rub	-7886
▁san	-7887
▁tag	-7888
▁tap	-7889
▁unn	-7890
▁wel	-7891
acent	-7892
acles	-7893
acruz	-7894
aires	-7895
alymp	-7896
ambia	-7897
anger	-7898
ateur	-7899
atisf	-7900
boats	-7901
bsite	-7902
ceius	-7903
eline	-7904
elong	-7905
emies	-7906
entro	-7907
eppel	-7908
erver	-7909
estig	-7910
euver	-7911
hears	-7912
iards	-7913
icial	-7914
idden	-7915
iency	-7916
ighed	-7917
index	-7918
inery	-7919
inger	-7920
ishaw	-7921
itors	-7922
naeus	-7923
onies	-7924
orner	-7925
orted	-7926
ospit	-7927
ospić	-7928
othes	-7929
otion	-7930
ounds	-7931
plete	-7932
pting	-7933
regon	-7934
rible	-7935
right	-7936
rovec	-7937
roxyl	-7938
ticul	-7939
uming	-7940
unior	-7941
usive	-7942
usted	-7943
▁Aure	-7944
▁Barb	-7945
▁Blom	-7946
▁Cope	-7947
▁Corp	-7948
▁Cruz	-7949
▁Cult	-7950
▁Dead	-7951
▁Está	-7952
▁Holy	-7953
▁Inch	-7954
▁Infl	-7955
▁Ivan	-7956
▁Jive	-7957
▁Karl	-7958
▁Kure	-7959
▁Leon	-7960
▁Long	-7961
▁Lund	-7962
▁Luty	-7963
▁Made	-7964
▁Play	-7965
▁Plot	-7966
▁Prim	-7967
▁Real	-7968
▁Seán	-7969
▁Siad	-7970
▁Soud	-7971
▁Tele	-7972
▁Then	-7973
▁Thus	-7974
▁Vill	-7975
▁Woom	-7976
▁aged	-7977
▁airl	-7978
▁arms	-7979
▁asks	-7980
▁baby	-7981
▁bass	-7982
▁bias	-7983
▁clip	-7984
▁corp	-7985
▁cust	-7986
▁dawn	-7987
▁diag	-7988
▁dial	-7989
▁diam	-7990
▁doll	-7991
▁elim	-7992
▁eyew	-7993
▁fake	-7994
▁fict	-7995
▁fish	-7996
▁fitz	-7997
▁fled	-7998
▁flew	-7999
▁fram	-8000
▁gang	-8001
▁hair	-8002
▁hall	-8003
▁hect	-8004
▁huge	-8005
▁kick	-8006
▁limb	-8007
▁misc	-8008
▁mood	-8009
▁outb	-8010
▁oxid	-8011
▁perf	-8012
▁pref	-8013
▁prey	-8014
▁pull	-8015
▁rejo	-8016
▁ribs	-8017
▁save	-8018
▁semi	-8019
▁shar	-8020
▁soft	-8021
▁stay	-8022
▁volc	-8023
aginaw	-8024
ailing	-8025
anding	-8026
artets	-8027
atimer	-8028
caster	-8029
ceived	-8030
cement	-8031
deacon	-8032
errero	-8033
inders	-8034
insula	-8035
marine	-8036
mented	-8037
nament	-8038
ometer	-8039
orable	-8040
orture	-8041
racuse	-8042
rother	-8043
uously	-8044
ussion	-8045
yramid	-8046
yright	-8047
▁About	-8048
▁Above	-8049
▁Broke	-8050
▁Brown	-8051
▁Bruce	-8052
▁Buddh	-8053
▁Creek	-8054
▁Crime	-8055
▁Dolin	-8056
▁Eleut	-8057
▁Forum	-8058
▁Fried	-8059
▁Grade	-8060
▁Greer	-8061
▁Honor	-8062
▁Islam	-8063
▁Jason	-8064
▁Kouma	-8065
▁Liber	-8066
▁Lions	-8067
▁Lissa	-8068
▁Masan	-8069
▁Never	-8070
▁Organ	-8071
▁Osaka	-8072
▁Pathé	-8073
▁Place	-8074
▁Plans	-8075
▁Plaza	-8076
▁Poems	-8077
▁Santo	-8078
▁Small	-8079
▁Spiel	-8080
▁Titus	-8081
▁Today	-8082
▁Treat	-8083
▁abbot	-8084
▁accus	-8085
▁admin	-8086
▁adopt	-8087
▁agree	-8088
▁angry	-8089
▁aside	-8090
▁beach	-8091
▁books	-8092
▁brand	-8093
▁brick	-8094
▁calls	-8095
▁capit	-8096
▁cease	-8097
▁claws	-8098
▁clean	-8099
▁clock	-8100
▁cloth	-8101
▁comed	-8102
▁cords	-8103
▁costs	-8104
▁crime	-8105
▁crops	-8106
▁divor	-8107
▁drive	-8108
▁fatal	-8109
▁feels	-8110
▁fewer	-8111
▁funds	-8112
▁grams	-8113
▁haiku	-8114
▁legit	-8115
▁loose	-8116
▁loser	-8117
▁marks	-8118
▁medic	-8119
▁mined	-8120
▁motor	-8121
▁occip	-8122
▁param	-8123
▁patri	-8124
▁pedic	-8125
▁plaza	-8126
▁popul	-8127
▁ports	-8128
▁posts	-8129
▁price	-8130
▁psych	-8131
▁ready	-8132
▁reapp	-8133
▁rearr	-8134
▁reass	-8135
▁renov	-8136
▁rever	-8137
▁roses	-8138
▁royal	-8139
▁screw	-8140
▁seeds	-8141
▁shout	-8142
▁shunt	-8143
▁sight	-8144
▁skirm	-8145
▁spark	-8146
▁steep	-8147
▁swept	-8148
▁tooth	-8149
▁tries	-8150
▁tying	-8151
▁unfin	-8152
▁union	-8153
▁veloc	-8154
▁wreck	-8155
▁zones	-8156
Herbert	-8157
agascar	-8158
atrical	-8159
ception	-8160
enhower	-8161
ensland	-8162
habilit	-8163
iations	-8164
imetres	-8165
inction	-8166
ipelago	-8167
ishment	-8168
ulating	-8169
▁Across	-8170
▁Action	-8171
▁Andres	-8172
▁Around	-8173
▁Brunei	-8174
▁Carlos	-8175
▁Centre	-8176
▁Dallas	-8177
▁Daniel	-8178
▁Estate	-8179
▁Felson	-8180
▁Fourth	-8181
▁Gnaeus	-8182
▁Golden	-8183
▁Gospić	-8184
▁Guinea	-8185
▁Haynes	-8186
▁Inside	-8187
▁Keenan	-8188
▁Lucius	-8189
▁Malate	-8190
▁Marian	-8191
▁Midway	-8192
▁Miller	-8193
▁Oregon	-8194
▁Palest	-8195
▁Porter	-8196
▁Rememb	-8197
▁Screen	-8198
▁Secret	-8199
▁Social	-8200
▁Turner	-8201
▁Vindex	-8202
▁Wilson	-8203
▁Zambia	-8204
▁aboard	-8205
▁agrees	-8206
▁applic	-8207
▁assert	-8208
▁belong	-8209
▁boring	-8210
▁breach	-8211
▁carbon	-8212
▁charts	-8213
▁citing	-8214
▁condem	-8215
▁consol	-8216
▁dating	-8217
▁deploy	-8218
▁detect	-8219
▁dimens	-8220
▁eleven	-8221
▁engage	-8222
▁ethnic	-8223
▁excess	-8224
▁extent	-8225
▁filled	-8226
▁frozen	-8227
▁glider	-8228
▁handle	-8229
▁hybrid	-8230
▁inland	-8231
▁latest	-8232
▁lawyer	-8233
▁looked	-8234
▁melody	-8235
▁merely	-8236
▁motifs	-8237
▁nation	-8238
▁notice	-8239
▁patron	-8240
▁poorly	-8241
▁powder	-8242
▁powers	-8243
▁recept	-8244
▁refere	-8245
▁relied	-8246
▁rescue	-8247
▁retire	-8248
▁runway	-8249
▁scheme	-8250
▁settle	-8251
▁signal	-8252
▁squads	-8253
▁staged	-8254
▁stores	-8255
▁street	-8256
▁styles	-8257
▁superf	-8258
▁suplex	-8259
▁tasked	-8260
▁theory	-8261
▁thinks	-8262
▁thrown	-8263
▁timing	-8264
ologists	-8265
ribution	-8266
stituted	-8267
visioned	-8268
▁Adentro	-8269
▁Alexand	-8270
▁Ancient	-8271
▁Anthony	-8272
▁Bahamas	-8273
▁Bradley	-8274
▁Cagayan	-8275
▁Cinemat	-8276
▁Coastal	-8277
▁Corners	-8278
▁Craigie	-8279
▁Flavian	-8280
▁Harbour	-8281
▁Johnson	-8282
▁Kipling	-8283
▁Latimer	-8284
▁Leading	-8285
▁Lutyens	-8286
▁Marines	-8287
▁Members	-8288
▁Morocco	-8289
▁Natural	-8290
▁Parthia	-8291
▁Picture	-8292
▁Release	-8293
▁Saginaw	-8294
▁Singles	-8295
▁Somalia	-8296
▁Tabasco	-8297
▁Vikings	-8298
▁Whishaw	-8299
▁Woomera	-8300
▁altered	-8301
▁amateur	-8302
▁applied	-8303
▁arrives	-8304
▁athlete	-8305
▁balance	-8306
▁banding	-8307
▁boilers	-8308
▁broadly	-8309
▁ceiling	-8310
▁charged	-8311
▁choices	-8312
▁cleared	-8313
▁closest	-8314
▁cluster	-8315
▁coordin	-8316
▁crewmen	-8317
▁curtain	-8318
▁depicts	-8319
▁digital	-8320
▁donated	-8321
▁driving	-8322
▁enabled	-8323
▁enemies	-8324
▁estates	-8325
▁express	-8326
▁fantasy	-8327
▁fishing	-8328
▁floodpl	-8329
▁footage	-8330
▁funeral	-8331
▁grossed	-8332
▁grouped	-8333
▁install	-8334
▁invaded	-8335
▁invited	-8336
▁letters	-8337
▁lifting	-8338
▁loaders	-8339
▁mansion	-8340
▁markers	-8341
▁marking	-8342
▁nations	-8343
▁neutral	-8344
▁outages	-8345
▁outcome	-8346
▁outflow	-8347
▁periods	-8348
▁pitches	-8349
▁platoon	-8350
▁powered	-8351
▁precurs	-8352
▁premier	-8353
▁proceed	-8354
▁recruit	-8355
▁refuses	-8356
▁replied	-8357
▁rescued	-8358
▁restore	-8359
▁revised	-8360
▁routing	-8361
▁sailing	-8362
▁selling	-8363
▁session	-8364
▁shallow	-8365
▁signing	-8366
▁someone	-8367
▁stretch	-8368
▁surgery	-8369
▁tunnels	-8370
▁typical	-8371
▁underst	-8372
▁watched	-8373
▁wealthy	-8374
▁wearing	-8375
▁website	-8376
▁weighed	-8377
▁willing	-8378
▁windows	-8379
▁wrought	-8380
ettlement	-8381
ticulitis	-8382
▁Americas	-8383
▁Archduke	-8384
▁Building	-8385
▁Cocceius	-8386
▁Egyptian	-8387
▁Guerrero	-8388
▁Kumrovec	-8389
▁Minister	-8390
▁Normandy	-8391
▁Paralymp	-8392
▁Personal	-8393
▁Quartets	-8394
▁Soudelor	-8395
▁Syracuse	-8396
▁Tiberius	-8397
▁Ultimate	-8398
▁Veracruz	-8399
▁accounts	-8400
▁agencies	-8401
▁analyses	-8402
▁annually	-8403
▁argument	-8404
▁barbette	-8405
▁circular	-8406
▁clearing	-8407
▁collapse	-8408
▁commonly	-8409
▁computer	-8410
▁concerns	-8411
▁confront	-8412
▁declined	-8413
▁deposits	-8414
▁disabled	-8415
▁domestic	-8416
▁download	-8417
▁enhanced	-8418
▁enlisted	-8419
▁flagship	-8420
▁freshman	-8421
▁grandson	-8422
▁handling	-8423
▁highways	-8424
▁hydroxyl	-8425
▁indicate	-8426
▁interned	-8427
▁marchers	-8428
▁marriage	-8429
▁mentions	-8430
▁normally	-8431
▁opposite	-8432
▁ordinary	-8433
▁overcast	-8434
▁overhead	-8435
▁parallel	-8436
▁peaceful	-8437
▁philosop	-8438
▁platinum	-8439
▁policies	-8440
▁prospect	-8441
▁remarked	-8442
▁romantic	-8443
▁severely	-8444
▁smallest	-8445
▁standing	-8446
▁starters	-8447
▁stripped	-8448
▁stronger	-8449
▁tensions	-8450
▁terminal	-8451
▁theaters	-8452
▁thousand	-8453
▁turbines	-8454
▁tympanum	-8455
▁velocity	-8456
▁watching	-8457
▁wrestler	-8458
▁Churchill	-8459
▁Continent	-8460
▁Eleuthera	-8461
▁Evolution	-8462
▁Friedrich	-8463
▁Guatemala	-8464
▁Initially	-8465
▁Parachute	-8466
▁Sacrifice	-8467
▁Spielberg	-8468
▁amphibian	-8469
▁ancestors	-8470
▁appearing	-8471
▁barbettes	-8472
▁believing	-8473
▁campaigns	-8474
▁candidate	-8475
▁commenced	-8476
▁component	-8477
▁concerned	-8478
▁construct	-8479
▁continent	-8480
▁convicted	-8481
▁defeating	-8482
▁defending	-8483
▁depiction	-8484
▁diplomats	-8485
▁discussed	-8486
▁essential	-8487
▁exercises	-8488
▁finishing	-8489
▁indicates	-8490
▁initiated	-8491
▁intersect	-8492
▁occasions	-8493
▁occupying	-8494
▁oxidation	-8495
▁penetrate	-8496
▁populated	-8497
▁portrayed	-8498
▁precision	-8499
▁propeller	-8500
▁releasing	-8501
▁residence	-8502
▁resources	-8503
▁sculptors	-8504
▁sentiment	-8505
▁sequences	-8506
▁survivors	-8507
▁volunteer	-8508
▁withdrawn	-8509
▁Archbishop	-8510
▁Basketball	-8511
▁Eisenhower	-8512
▁Germanicus	-8513
▁Madagascar	-8514
▁Queensland	-8515
▁Wolverines	-8516
▁archdeacon	-8517
▁assistance	-8518
▁centimetre	-8519
▁connecting	-8520
▁delegation	-8521
▁destroying	-8522
▁difference	-8523
▁envisioned	-8524
▁goalkeeper	-8525
▁importance	-8526
▁industries	-8527
▁interviews	-8528
▁negotiated	-8529
▁occasional	-8530
▁possession	-8531
▁propulsion	-8532
▁reactivity	-8533
▁repeatedly	-8534
▁sculptures	-8535
▁settlement	-8536
▁smoothbore	-8537
▁substitute	-8538
▁supplement	-8539
▁underwater	-8540
▁unfinished	-8541
▁wheelchair	-8542
▁Dreadnought	-8543
▁Legislative	-8544
▁Remembrance	-8545
▁Underground	-8546
▁appropriate	-8547
▁archipelago	-8548
▁arrangement	-8549
▁authorities	-8550
▁depressions	-8551
▁destination	-8552
▁disappeared	-8553
▁distinctive	-8554
▁effectively	-8555
▁fitzHerbert	-8556
▁legislative	-8557
▁manufacture	-8558
▁overlooking	-8559
▁photographs	-8560
▁photography	-8561
▁positioning	-8562
▁recognition	-8563
▁territories	-8564
qualification	-8565
▁Professional	-8566
▁administered	-8567
▁conspirators	-8568
▁demonstrated	-8569
▁environments	-8570
▁independence	-8571
▁institutions	-8572
▁intermediate	-8573
▁intersecting	-8574
▁neighborhood	-8575
▁strengthened	-8576
▁transmission	-8577
▁commemorating	-8578
▁commemoration	-8579
▁communication	-8580
▁corresponding	-8581
▁distinguished	-8582
▁horticultural	-8583
▁manufacturing	-8584
▁understanding	-8585
▁Reconstruction	-8586
▁communications	-8587
▁diverticulitis	-8588
▁fortifications	-8589
▁identification	-8590
▁reconstruction	-8591
▁superstructure	-8592
PN	-8593
VP	-8594
cy	-8595
dd	-8596
gu	-8597
hu	-8598
ja	-8599
la	-8600
oo	-8601
vo	-8602
ín	-8603
▁£	-8604
▁É	-8605
▁−	-8606
agg	-8607
alg	-8608
bul	-8609
cas	-8610
coh	-8611
cup	-8612
dic	-8613
dly	-8614
dog	-8615
eed	-8616
equ	-8617
ibl	-8618
ika	-8619
kip	-8620
lim	-8621
mos	-8622
mud	-8623
nce	-8624
oda	-8625
odv	-8626
oki	-8627
ola	-8628
olk	-8629
pic	-8630
rey	-8631
ski	-8632
thm	-8633
uga	-8634
una	-8635
ura	-8636
vey	-8637
ylv	-8638
▁AS	-8639
▁CE	-8640
▁CN	-8641
▁CU	-8642
▁Ec	-8643
▁Ka	-8644
▁Ky	-8645
▁MP	-8646
▁Mr	-8647
▁Ot	-8648
▁Ox	-8649
▁Pu	-8650
▁Rh	-8651
▁XI	-8652
▁af	-8653
▁iT	-8654
▁ir	-8655
▁je	-8656
HSAA	-8657
abit	-8658
adel	-8659
alik	-8660
amps	-8661
anan	-8662
anie	-8663
anks	-8664
aser	-8665
ashi	-8666
ayne	-8667
bulo	-8668
coni	-8669
dong	-8670
ease	-8671
ecto	-8672
eger	-8673
eing	-8674
ella	-8675
elly	-8676
enet	-8677
enic	-8678
eria	-8679
feld	-8680
glas	-8681
hann	-8682
iago	-8683
iano	-8684
icut	-8685
iece	-8686
iege	-8687
ione	-8688
irid	-8689
isms	-8690
lers	-8691
lton	-8692
mosa	-8693
nell	-8694
obel	-8695
oken	-8696
oner	-8697
oody	-8698
ostr	-8699
otic	-8700
owed	-8701
owen	-8702
pped	-8703
rect	-8704
rels	-8705
riev	-8706
udes	-8707
ufus	-8708
ules	-8709
utus	-8710
view	-8711
wise	-8712
xide	-8713
▁Abb	-8714
▁Alb	-8715
▁BDA	-8716
▁Bas	-8717
▁Bav	-8718
▁Cay	-8719
▁Cru	-8720
▁Del	-8721
▁Der	-8722
▁End	-8723
▁Fab	-8724
▁Fel	-8725
▁Fox	-8726
▁Gas	-8727
▁Han	-8728
▁Hin	-8729
▁Hun	-8730
▁Jay	-8731
▁Jup	-8732
▁Kev	-8733
▁Kle	-8734
▁Lag	-8735
▁Lew	-8736
▁MVP	-8737
▁Maj	-8738
▁Mat	-8739
▁Mik	-8740
▁Muk	-8741
▁Nac	-8742
▁Nev	-8743
▁Now	-8744
▁Num	-8745
▁Pan	-8746
▁Pap	-8747
▁Ple	-8748
▁Rab	-8749
▁Spr	-8750
▁Ste	-8751
▁Sul	-8752
▁Ted	-8753
▁Ton	-8754
▁Tun	-8755
▁UPM	-8756
▁Vie	-8757
▁Vit	-8758
▁Vol	-8759
▁Wob	-8760
▁Yet	-8761
▁cam	-8762
▁cha	-8763
▁cit	-8764
▁cod	-8765
▁dug	-8766
▁err	-8767
▁fed	-8768
▁fog	-8769
▁ger	-8770
▁hal	-8771
▁hed	-8772
▁ket	-8773
▁lip	-8774
▁lit	-8775
▁log	-8776
▁neo	-8777
▁odd	-8778
▁ped	-8779
▁pel	-8780
▁phr	-8781
▁pir	-8782
▁rav	-8783
▁ray	-8784
▁rio	-8785
▁rob	-8786
▁rug	-8787
▁sac	-8788
▁sag	-8789
▁sam	-8790
▁sle	-8791
▁ton	-8792
▁tyr	-8793
▁ups	-8794
ables	-8795
amorf	-8796
angka	-8797
annel	-8798
apore	-8799
arged	-8800
artak	-8801
assau	-8802
asury	-8803
atern	-8804
azine	-8805
azing	-8806
block	-8807
ecost	-8808
eenth	-8809
embly	-8810
eness	-8811
enses	-8812
essor	-8813
helan	-8814
hetic	-8815
house	-8816
iches	-8817
idity	-8818
idney	-8819
illeg	-8820
inald	-8821
inist	-8822
inous	-8823
inued	-8824
iseum	-8825
itzer	-8826
ivate	-8827
lenau	-8828
lined	-8829
occup	-8830
odnik	-8831
odore	-8832
ontia	-8833
oping	-8834
orist	-8835
oskey	-8836
phone	-8837
place	-8838
raits	-8839
rates	-8840
remes	-8841
rised	-8842
rocod	-8843
ronze	-8844
shore	-8845
tarct	-8846
uence	-8847
ultan	-8848
urray	-8849
urred	-8850
ushes	-8851
water	-8852
where	-8853
▁Abaj	-8854
▁Adri	-8855
▁Baby	-8856
▁Bent	-8857
▁Born	-8858
▁Bush	-8859
▁Case	-8860
▁Dean	-8861
▁Duck	-8862
▁ESPN	-8863
▁Exit	-8864
▁Face	-8865
▁Fame	-8866
▁Fern	-8867
▁Find	-8868
▁Gaby	-8869
▁Gale	-8870
▁Gate	-8871
▁Greg	-8872
▁Hope	-8873
▁Hopk	-8874
▁Hume	-8875
▁Iban	-8876
▁Jean	-8877
▁Kiel	-8878
▁Life	-8879
▁Live	-8880
▁Mars	-8881
▁Mesa	-8882
▁Next	-8883
▁Nich	-8884
▁Nick	-8885
▁Ohio	-8886
▁Paco	-8887
▁Pain	-8888
▁Pent	-8889
▁Peru	-8890
▁Podv	-8891
▁Pole	-8892
▁Prem	-8893
▁Prog	-8894
▁Prot	-8895
▁Salv	-8896
▁Soon	-8897
▁Stan	-8898
▁Swed	-8899
▁Test	-8900
▁Tomb	-8901
▁Tong	-8902
▁Town	-8903
▁Tren	-8904
▁bear	-8905
▁boun	-8906
▁bout	-8907
▁brig	-8908
▁cany	-8909
▁cars	-8910
▁cell	-8911
▁chap	-8912
▁chem	-8913
▁clad	-8914
▁core	-8915
▁didn	-8916
▁dies	-8917
▁erup	-8918
▁fair	-8919
▁fart	-8920
▁fasc	-8921
▁fate	-8922
▁fest	-8923
▁foul	-8924
▁fulf	-8925
▁furn	-8926
▁gran	-8927
▁grav	-8928
▁guar	-8929
▁hero	-8930
▁hook	-8931
▁keen	-8932
▁lift	-8933
▁lyre	-8934
▁mask	-8935
▁memb	-8936
▁mirr	-8937
▁moon	-8938
▁murd	-8939
▁owed	-8940
▁perc	-8941
▁phys	-8942
▁plus	-8943
▁pole	-8944
▁pret	-8945
▁pure	-8946
▁purg	-8947
▁puts	-8948
▁puzz	-8949
▁quit	-8950
▁riot	-8951
▁safe	-8952
▁sage	-8953
▁salv	-8954
▁scal	-8955
▁situ	-8956
▁soul	-8957
▁stip	-8958
▁summ	-8959
▁tass	-8960
▁tert	-8961
▁torn	-8962
▁unev	-8963
▁unre	-8964
▁vert	-8965
▁vote	-8966
▁wars	-8967
▁yeah	-8968
advant	-8969
change	-8970
coming	-8971
ellius	-8972
escent	-8973
estone	-8974
inness	-8975
istant	-8976
istice	-8977
leship	-8978
master	-8979
merged	-8980
ointed	-8981
ondaga	-8982
onesia	-8983
orders	-8984
orious	-8985
orters	-8986
planes	-8987
rapped	-8988
razine	-8989
spools	-8990
struct	-8991
tering	-8992
unders	-8993
untary	-8994
urstan	-8995
versed	-8996
▁Analy	-8997
▁Anker	-8998
▁Asian	-8999
▁Birch	-9000
▁Campo	-9001
▁Child	-9002
▁Cohen	-9003
▁Curse	-9004
▁Daily	-9005
▁Darin	-9006
▁Degas	-9007
▁Diego	-9008
▁Drive	-9009
▁Jared	-9010
▁Jinks	-9011
▁Labor	-9012
▁Large	-9013
▁Laure	-9014
▁MHSAA	-9015
▁NJCAA	-9016
▁Niger	-9017
▁Nomin	-9018
▁Nored	-9019
▁Oswin	-9020
▁Ozawa	-9021
▁Payne	-9022
▁Perth	-9023
▁Pison	-9024
▁Point	-9025
▁Power	-9026
▁Prime	-9027
▁Radio	-9028
▁Recto	-9029
▁Roads	-9030
▁Round	-9031
▁Rufus	-9032
▁Rules	-9033
▁Saint	-9034
▁Simon	-9035
▁Stall	-9036
▁Steph	-9037
▁Story	-9038
▁Teleg	-9039
▁Thing	-9040
▁Tirid	-9041
▁Torah	-9042
▁Torch	-9043
▁Tower	-9044
▁Truth	-9045
▁Weeds	-9046
▁Women	-9047
▁Worth	-9048
▁abdic	-9049
▁aided	-9050
▁aimed	-9051
▁alcoh	-9052
▁apart	-9053
▁bears	-9054
▁beats	-9055
▁blown	-9056
▁catch	-9057
▁ceded	-9058
▁cheek	-9059
▁crash	-9060
▁cycle	-9061
▁deriv	-9062
▁dimin	-9063
▁effic	-9064
▁elite	-9065
▁emerg	-9066
▁enfor	-9067
▁engag	-9068
▁figur	-9069
▁filmm	-9070
▁fires	-9071
▁girls	-9072
▁grown	-9073
▁incom	-9074
▁ineff	-9075
▁items	-9076
▁juven	-9077
▁leads	-9078
▁liked	-9079
▁looks	-9080
▁loses	-9081
▁moves	-9082
▁nickn	-9083
▁oblig	-9084
▁parks	-9085
▁pione	-9086
▁pitch	-9087
▁polar	-9088
▁prequ	-9089
▁prime	-9090
▁pursu	-9091
▁radar	-9092
▁relie	-9093
▁rocks	-9094
▁ruler	-9095
▁rules	-9096
▁sales	-9097
▁scope	-9098
▁seeks	-9099
▁seems	-9100
▁sized	-9101
▁skill	-9102
▁sport	-9103
▁spots	-9104
▁stere	-9105
▁stops	-9106
▁stuck	-9107
▁tenth	-9108
▁tight	-9109
▁troop	-9110
▁trunc	-9111
▁upset	-9112
▁usual	-9113
▁villa	-9114
▁voted	-9115
▁votes	-9116
▁wears	-9117
acement	-9118
amation	-9119
anchise	-9120
astical	-9121
ecticut	-9122
emption	-9123
enstein	-9124
enzuela	-9125
escript	-9126
essions	-9127
formity	-9128
hermosa	-9129
iblical	-9130
ilation	-9131
itioned	-9132
iveness	-9133
jection	-9134
legiate	-9135
minster	-9136
rations	-9137
spector	-9138
terbury	-9139
through	-9140
viously	-9141
western	-9142
ylvania	-9143
▁Benoit	-9144
▁Bloody	-9145
▁Cambod	-9146
▁Cathed	-9147
▁Cayuga	-9148
▁Colomb	-9149
▁Daleks	-9150
▁Design	-9151
▁Eamonn	-9152
▁Ernest	-9153
▁Friday	-9154
▁Guards	-9155
▁Harvey	-9156
▁Illust	-9157
▁Johann	-9158
▁Johnny	-9159
▁Kenyon	-9160
▁Keppel	-9161
▁Klenau	-9162
▁Knight	-9163
▁Labour	-9164
▁Luneta	-9165
▁Marcos	-9166
▁McCann	-9167
▁Murray	-9168
▁Nangka	-9169
▁Object	-9170
▁Parque	-9171
▁Phelan	-9172
▁Polish	-9173
▁Spring	-9174
▁Storms	-9175
▁Strait	-9176
▁Sultan	-9177
▁Tracer	-9178
▁Treaty	-9179
▁Ulster	-9180
▁Willie	-9181
▁Wobble	-9182
▁Wooden	-9183
▁absent	-9184
▁actual	-9185
▁adults	-9186
▁affair	-9187
▁ambass	-9188
▁amines	-9189
▁ashore	-9190
▁aspect	-9191
▁banned	-9192
▁barrel	-9193
▁border	-9194
▁bronze	-9195
▁caecil	-9196
▁cannon	-9197
▁canvas	-9198
▁circle	-9199
▁clause	-9200
▁colors	-9201
▁comedy	-9202
▁compos	-9203
▁credit	-9204
▁crocod	-9205
▁define	-9206
▁denied	-9207
▁desert	-9208
▁devast	-9209
▁divers	-9210
▁dubbed	-9211
▁edited	-9212
▁eighth	-9213
▁emerge	-9214
▁eroded	-9215
▁evoked	-9216
▁factor	-9217
▁female	-9218
▁fertil	-9219
▁fleets	-9220
▁folded	-9221
▁hidden	-9222
▁hiring	-9223
▁honour	-9224
▁hospit	-9225
▁iTunes	-9226
▁incest	-9227
▁inspir	-9228
▁ladder	-9229
▁legacy	-9230
▁limits	-9231
▁listed	-9232
▁loaned	-9233
▁native	-9234
▁obtain	-9235
▁occurs	-9236
▁openly	-9237
▁paddle	-9238
▁panels	-9239
▁parent	-9240
▁paying	-9241
▁perpet	-9242
▁petals	-9243
▁petrol	-9244
▁prohib	-9245
▁rebels	-9246
▁remind	-9247
▁repair	-9248
▁reward	-9249
▁rhythm	-9250
▁rivers	-9251
▁silver	-9252
▁slopes	-9253
▁sounds	-9254
▁spoken	-9255
▁statue	-9256
▁straps	-9257
▁strips	-9258
▁suited	-9259
▁switch	-9260
▁talent	-9261
▁tended	-9262
▁timber	-9263
▁topped	-9264
▁unrest	-9265
▁valley	-9266
▁venues	-9267
▁waited	-9268
▁walled	-9269
▁winter	-9270
▁wonder	-9271
affaires	-9272
andalism	-9273
mination	-9274
together	-9275
▁Affairs	-9276
▁Amerika	-9277
▁Antarct	-9278
▁Bentley	-9279
▁Carroll	-9280
▁Chadian	-9281
▁Classic	-9282
▁Clement	-9283
▁Corbulo	-9284
▁Denmark	-9285
▁Douglas	-9286
▁Finally	-9287
▁Freeman	-9288
▁Genesis	-9289
▁Germans	-9290
▁Gilbert	-9291
▁Hampton	-9292
▁Interim	-9293
▁Jupiter	-9294
▁Library	-9295
▁Madison	-9296
▁Mayorga	-9297
▁Mosconi	-9298
▁Olympia	-9299
▁Outside	-9300
▁Primary	-9301
▁Project	-9302
▁Quarter	-9303
▁Rudyard	-9304
▁Shelton	-9305
▁Takalik	-9306
▁Tourism	-9307
▁Towards	-9308
▁Trenton	-9309
▁Various	-9310
▁Warning	-9311
▁Weevils	-9312
▁achieve	-9313
▁aggress	-9314
▁airstri	-9315
▁alkenes	-9316
▁amounts	-9317
▁appoint	-9318
▁arguing	-9319
▁avoided	-9320
▁barrels	-9321
▁barrier	-9322
▁blocked	-9323
▁cartoon	-9324
▁ceramic	-9325
▁charter	-9326
▁compens	-9327
▁compete	-9328
▁consequ	-9329
▁costume	-9330
▁crashed	-9331
▁creased	-9332
▁crosses	-9333
▁decline	-9334
▁density	-9335
▁discont	-9336
▁drafted	-9337
▁economy	-9338
▁equally	-9339
▁evident	-9340
▁existed	-9341
▁facilit	-9342
▁farther	-9343
▁favored	-9344
▁feeding	-9345
▁flights	-9346
▁frigate	-9347
▁frontal	-9348
▁greatly	-9349
▁housing	-9350
▁immense	-9351
▁lacking	-9352
▁lawsuit	-9353
▁leagues	-9354
▁lighter	-9355
▁lightly	-9356
▁listing	-9357
▁longest	-9358
▁marched	-9359
▁melodic	-9360
▁moments	-9361
▁mortars	-9362
▁onwards	-9363
▁plastic	-9364
▁plating	-9365
▁pointed	-9366
▁precise	-9367
▁prefect	-9368
▁preserv	-9369
▁profile	-9370
▁proport	-9371
▁puzzles	-9372
▁pyramid	-9373
▁ranging	-9374
▁readers	-9375
▁reality	-9376
▁referee	-9377
▁remarks	-9378
▁repairs	-9379
▁restaur	-9380
▁revenue	-9381
▁rioters	-9382
▁sagging	-9383
▁scoring	-9384
▁secured	-9385
▁seeking	-9386
▁senator	-9387
▁singing	-9388
▁sinking	-9389
▁sitting	-9390
▁sixteen	-9391
▁stadium	-9392
▁statues	-9393
▁stories	-9394
▁strange	-9395
▁strokes	-9396
▁substit	-9397
▁teacher	-9398
▁thrones	-9399
▁timeout	-9400
▁tourism	-9401
▁unclear	-9402
▁uncover	-9403
▁vehicle	-9404
▁volumes	-9405
▁whereas	-9406
▁workers	-9407
▁worship	-9408
amorfosis	-9409
roduction	-9410
▁Adriatic	-9411
▁Assembly	-9412
▁Broadway	-9413
▁Catalina	-9414
▁Coliseum	-9415
▁Critical	-9416
▁Domitius	-9417
▁Facebook	-9418
▁Fernando	-9419
▁Hamilton	-9420
▁Industry	-9421
▁Innocent	-9422
▁Investig	-9423
▁Magazine	-9424
▁Manufact	-9425
▁Ministry	-9426
▁Nacional	-9427
▁Nepartak	-9428
▁Observer	-9429
▁Onondaga	-9430
▁Petoskey	-9431
▁Pisonian	-9432
▁Rainfall	-9433
▁Regional	-9434
▁Santiago	-9435
▁Saunders	-9436
▁Sciences	-9437
▁Sergeant	-9438
▁Survivor	-9439
▁Thurstan	-9440
▁Together	-9441
▁Training	-9442
▁Treasure	-9443
▁academic	-9444
▁advances	-9445
▁amounted	-9446
▁brigades	-9447
▁brothers	-9448
▁clothing	-9449
▁colleges	-9450
▁concerts	-9451
▁consists	-9452
▁convince	-9453
▁creative	-9454
▁credited	-9455
▁damaging	-9456
▁decisive	-9457
▁designer	-9458
▁diameter	-9459
▁disagree	-9460
▁disorgan	-9461
▁document	-9462
▁dominant	-9463
▁dramatic	-9464
▁dropping	-9465
▁enlarged	-9466
▁eventual	-9467
▁expelled	-9468
▁extremes	-9469
▁feelings	-9470
▁feminist	-9471
▁formally	-9472
▁fortress	-9473
▁freedmen	-9474
▁grenades	-9475
▁happened	-9476
▁headband	-9477
▁hectares	-9478
▁infinite	-9479
▁injuries	-9480
▁insisted	-9481
▁knockout	-9482
▁landings	-9483
▁meetings	-9484
▁membered	-9485
▁merchant	-9486
▁narrowly	-9487
▁negative	-9488
▁offering	-9489
▁opponent	-9490
▁piercing	-9491
▁pounders	-9492
▁premiere	-9493
▁preserve	-9494
▁proposal	-9495
▁radicals	-9496
▁reducing	-9497
▁remember	-9498
▁renumber	-9499
▁reversed	-9500
▁senators	-9501
▁solution	-9502
▁steadily	-9503
▁steering	-9504
▁sunlight	-9505
▁suplexes	-9506
▁teammate	-9507
▁terrible	-9508
▁tertiary	-9509
▁tracking	-9510
▁ventures	-9511
▁warnings	-9512
▁weighing	-9513
▁Aftermath	-9514
▁Argentina	-9515
▁Assistant	-9516
▁Blomfield	-9517
▁Cardinals	-9518
▁Cathedral	-9519
▁Community	-9520
▁Confucian	-9521
▁Guangdong	-9522
▁Indonesia	-9523
▁Malaysian	-9524
▁Nominated	-9525
▁Pentecost	-9526
▁Podvodnik	-9527
▁Recording	-9528
▁Regiments	-9529
▁Rosenfeld	-9530
▁Satellite	-9531
▁Singapore	-9532
▁Spaniards	-9533
▁Stephanie	-9534
▁Telegraph	-9535
▁Tiridates	-9536
▁Vitellius	-9537
▁Wanderone	-9538
▁Weedsport	-9539
▁accompany	-9540
▁aftermath	-9541
▁ambiguity	-9542
▁amidships	-9543
▁ancestral	-9544
▁automatic	-9545
▁auxiliary	-9546
▁beautiful	-9547
▁carefully	-9548
▁catapults	-9549
▁ceasefire	-9550
▁cladogram	-9551
▁committee	-9552
▁convinces	-9553
▁copyright	-9554
▁criticism	-9555
▁curveball	-9556
▁decisions	-9557
▁disadvant	-9558
▁dismissed	-9559
▁displayed	-9560
▁earspools	-9561
▁elections	-9562
▁emotional	-9563
▁entertain	-9564
▁exchanged	-9565
▁extending	-9566
▁fastballs	-9567
▁favourite	-9568
▁franchise	-9569
▁freeboard	-9570
▁functions	-9571
▁hospitals	-9572
▁hydrazine	-9573
▁identical	-9574
▁inflicted	-9575
▁intensive	-9576
▁newspaper	-9577
▁occipital	-9578
▁philosoph	-9579
▁phylogeny	-9580
▁placement	-9581
▁portraits	-9582
▁privately	-9583
▁proceeded	-9584
▁purgation	-9585
▁qualities	-9586
▁reactions	-9587
▁realigned	-9588
▁recruited	-9589
▁recurring	-9590
▁referring	-9591
▁relocated	-9592
▁respected	-9593
▁revealing	-9594
▁roadblock	-9595
▁seventeen	-9596
▁shipments	-9597
▁stability	-9598
▁statement	-9599
▁stationed	-9600
▁stylistic	-9601
▁submerged	-9602
▁territory	-9603
▁thousands	-9604
▁typically	-9605
▁universal	-9606
▁unusually	-9607
▁voluntary	-9608
▁withstand	-9609
▁wrestlers	-9610
▁Battleship	-9611
▁Canterbury	-9612
▁Collegiate	-9613
▁Guatemalan	-9614
▁Napoleonic	-9615
▁Settlement	-9616
▁Television	-9617
▁Valenzuela	-9618
▁Wheelchair	-9619
▁approaches	-9620
▁attractive	-9621
▁caecilians	-9622
▁candidates	-9623
▁celebrated	-9624
▁ceremonies	-9625
▁commanders	-9626
▁commanding	-9627
▁compromise	-9628
▁	-9629
e	-9630
t	-9631
a	-9632
n	-9633
i	-9634
o	-9635
r	-9636
s	-9637
h	-9638
d	-9639
l	-9640
c	-9641
u	-9642
m	-9643
f	-9644
p	-9645
g	-9646
w	-9647
y	-9648
b	-9649
,	-9650
.	-9651
v	-9652
@	-9653
k	-9654
1	-9655
0	-9656
T	-9657
A	-9658
S	-9659
=	-9660
C	-9661
2	-9662
B	-9663
M	-9664
"	-9665
I	-9666
-	-9667
9	-9668
N	-9669
'	-9670
H	-9671
D	-9672
P	-9673
(	-9674
)	-9675
L	-9676
x	-9677
F	-9678
R	-9679
W	-9680
3	-9681
5	-9682
G	-9683
4	-9684
J	-9685
8	-9686
O	-9687
6	-9688
E	-9689
U	-9690
7	-9691
z	-9692
K	-9693
j	-9694
q	-9695
;	-9696
V	-9697
Y	-9698
–	-9699
:	-9700
—	-9701
/	-9702
$	-9703
[	-9704
]	-9705
Z	-9706
Q	-9707
%	-9708
X	-9709
é	-9710
á	-9711
ü	-9712
’	-9713
ō	-9714
!	-9715
í	-9716
&	-9717
+	-9718
°	-9719
ū	-9720
#	-9721
ñ	-9722
<	-9723
>	-9724
ć	-9725
?	-9726
₱	-9727
ó	-9728
¥	-9729
α	-9730
“	-9731
”	-9732
É	-9733
⁄	-9734
ú	-9735
Ō	-9736
Π	-9737
ö	-9738
£	-9739
−	-9740
